{
  "version": "1.0",
  "truncation": null,
  "padding": null,
  "added_tokens": [
    {
      "id": 0,
      "content": "<unk>",
      "single_word": false,
      "lstrip": false,
      "rstrip": false,
      "normalized": false,
      "special": true
    },
    {
      "id": 1,
      "content": "<pad>",
      "single_word": false,
      "lstrip": false,
      "rstrip": false,
      "normalized": false,
      "special": true
    }
  ],
  "normalizer": null,
  "pre_tokenizer": {
    "type": "ByteLevel",
    "add_prefix_space": false,
    "trim_offsets": true,
    "use_regex": true
  },
  "post_processor": null,
  "decoder": {
    "type": "ByteLevel",
    "add_prefix_space": true,
    "trim_offsets": true,
    "use_regex": true
  },
  "model": {
    "type": "BPE",
    "dropout": null,
    "unk_token": "<unk>",
    "continuing_subword_prefix": null,
    "end_of_word_suffix": null,
    "fuse_unk": false,
    "byte_fallback": false,
    "ignore_merges": false,
    "vocab": {
      "<unk>": 0,
      "<pad>": 1,
      "!": 2,
      "\"": 3,
      "#": 4,
      "%": 5,
      "'": 6,
      "(": 7,
      ")": 8,
      "+": 9,
      ",": 10,
      "-": 11,
      ".": 12,
      "/": 13,
      "0": 14,
      "1": 15,
      "2": 16,
      "3": 17,
      "5": 18,
      "8": 19,
      ":": 20,
      ";": 21,
      "<": 22,
      "=": 23,
      ">": 24,
      "?": 25,
      "A": 26,
      "B": 27,
      "C": 28,
      "D": 29,
      "E": 30,
      "F": 31,
      "G": 32,
      "H": 33,
      "I": 34,
      "J": 35,
      "L": 36,
      "M": 37,
      "N": 38,
      "O": 39,
      "P": 40,
      "Q": 41,
      "R": 42,
      "S": 43,
      "T": 44,
      "U": 45,
      "V": 46,
      "W": 47,
      "Y": 48,
      "[": 49,
      "]": 50,
      "a": 51,
      "b": 52,
      "c": 53,
      "d": 54,
      "e": 55,
      "f": 56,
      "g": 57,
      "h": 58,
      "i": 59,
      "j": 60,
      "k": 61,
      "l": 62,
      "m": 63,
      "n": 64,
      "o": 65,
      "p": 66,
      "q": 67,
      "r": 68,
      "s": 69,
      "t": 70,
      "u": 71,
      "v": 72,
      "w": 73,
      "x": 74,
      "y": 75,
      "z": 76,
      "{": 77,
      "}": 78,
      "¡": 79,
      "¤": 80,
      "¦": 81,
      "§": 82,
      "¨": 83,
      "©": 84,
      "«": 85,
      "±": 86,
      "³": 87,
      "´": 88,
      "¸": 89,
      "º": 90,
      "»": 91,
      "¼": 92,
      "¿": 93,
      "Â": 94,
      "Ã": 95,
      "â": 96,
      "ï": 97,
      "ð": 98,
      "Ċ": 99,
      "Ġ": 100,
      "Ģ": 101,
      "ģ": 102,
      "Ĥ": 103,
      "ħ": 104,
      "ī": 105,
      "Ĭ": 106,
      "Į": 107,
      "į": 108,
      "ı": 109,
      "ĳ": 110,
      "Ĵ": 111,
      "Ķ": 112,
      "ķ": 113,
      "ĺ": 114,
      "Ļ": 115,
      "ľ": 116,
      "Ŀ": 117,
      "Ł": 118,
      "Ń": 119,
      "er": 120,
      "ar": 121,
      "Ġc": 122,
      "es": 123,
      "io": 124,
      "ot": 125,
      "su": 126,
      "en": 127,
      "ger": 128,
      "ario": 129,
      "bot": 130,
      "gerbot": 131,
      "Agerbot": 132,
      "suario": 133,
      "Usuario": 134,
      "Ġa": 135,
      "Ġp": 136,
      "Ġd": 137,
      "Ġs": 138,
      "ĠÂ": 139,
      "os": 140,
      "Ġt": 141,
      "ĠÂ¿": 142,
      "qu": 143,
      "un": 144,
      "Ġco": 145,
      "Ġo": 146,
      "la": 147,
      "ÃŃ": 148,
      "ra": 149,
      "Ġde": 150,
      "ta": 151,
      "Ġe": 152,
      "Ġm": 153,
      "Ġun": 154,
      "to": 155,
      "do": 156,
      "as": 157,
      "Ã³": 158,
      "ci": 159,
      "Ġqu": 160,
      "Ġes": 161,
      "Ġv": 162,
      "Ã©": 163,
      "re": 164,
      "te": 165,
      "lo": 166,
      "Ġcon": 167,
      "Ġy": 168,
      "in": 169,
      "al": 170,
      "an": 171,
      "Ã¡": 172,
      "ho": 173,
      "mos": 174,
      "Ġn": 175,
      "or": 176,
      "ig": 177,
      "mp": 178,
      "Ġel": 179,
      "is": 180,
      "Ġte": 181,
      "da": 182,
      "Ġb": 183,
      "Ġla": 184,
      "ien": 185,
      "Ġuna": 186,
      "Ġque": 187,
      "Ã³n": 188,
      "ec": 189,
      "Ġh": 190,
      "ĠS": 191,
      "mo": 192,
      "ic": 193,
      "Ġch": 194,
      "Ã±": 195,
      "res": 196,
      "Ġg": 197,
      "uen": 198,
      "on": 199,
      "eg": 200,
      "de": 201,
      "Ġl": 202,
      "Ġen": 203,
      "ĠC": 204,
      "ier": 205,
      "Ġso": 206,
      "mb": 207,
      "Ġf": 208,
      "ÃŃa": 209,
      "uÃ©": 210,
      "ma": 211,
      "ri": 212,
      "aÃ±": 213,
      "ro": 214,
      "Ġme": 215,
      "Ġno": 216,
      "ðŁ": 217,
      "me": 218,
      "Ġeh": 219,
      "mpaÃ±": 220,
      "ciÃ³n": 221,
      "ti": 222,
      "Ġver": 223,
      "ue": 224,
      "ĠE": 225,
      "ĠP": 226,
      "ĠðŁ": 227,
      "cu": 228,
      "Ã¡s": 229,
      "Ġal": 230,
      "Ġha": 231,
      "Ġre": 232,
      "Ġca": 233,
      "arla": 234,
      "lar": 235,
      "ĠcompaÃ±": 236,
      "hora": 237,
      "ĠT": 238,
      "Ġlo": 239,
      "Ġsu": 240,
      "que": 241,
      "ĠA": 242,
      "Ġper": 243,
      "Ġbuen": 244,
      "ues": 245,
      "Ġahora": 246,
      "quÃŃ": 247,
      "QuÃ©": 248,
      "Ġcharla": 249,
      "âĢ": 250,
      "ĻĤ": 251,
      "Ġpor": 252,
      "ĠD": 253,
      "ĠsÃŃ": 254,
      "Ã³mo": 255,
      "ara": 256,
      "ĠðŁĻĤ": 257,
      "ia": 258,
      "le": 259,
      "sa": 260,
      "âĢ¦": 261,
      "Ġot": 262,
      "Ġres": 263,
      "ĠN": 264,
      "ye": 265,
      "Ġin": 266,
      "Ġsi": 267,
      "co": 268,
      "igo": 269,
      "Ġbueno": 270,
      "ieres": 271,
      "Ġam": 272,
      "Ġse": 273,
      "ve": 274,
      "egu": 275,
      "aj": 276,
      "Ġi": 277,
      "go": 278,
      "dad": 279,
      "iste": 280,
      "ez": 281,
      "Ġtu": 282,
      "Ġpues": 283,
      "ĠquÃ©": 284,
      "imos": 285,
      "ĠmÃ¡s": 286,
      "pe": 287,
      "Ġdes": 288,
      "tos": 289,
      "Ġcont": 290,
      "ĠM": 291,
      "Ġoye": 292,
      "Ġsolo": 293,
      "Ġho": 294,
      "cuc": 295,
      "Ġescuc": 296,
      "ĠNo": 297,
      "Ãº": 298,
      "ica": 299,
      "ĠcompaÃ±er": 300,
      "ĠSÃŃ": 301,
      "Ġpara": 302,
      "cio": 303,
      "us": 304,
      "ando": 305,
      "ce": 306,
      "Ġest": 307,
      "ĠEs": 308,
      "ĠÂ¡": 309,
      "Ġsin": 310,
      "CÃ³mo": 311,
      "na": 312,
      "ĠG": 313,
      "rar": 314,
      "tra": 315,
      "ido": 316,
      "raci": 317,
      "ita": 318,
      "ĠSi": 319,
      "toy": 320,
      "eces": 321,
      "Te": 322,
      "mbi": 323,
      "ĠL": 324,
      "Ġpre": 325,
      "eguimos": 326,
      "Ġotra": 327,
      "ir": 328,
      "Ġcu": 329,
      "ente": 330,
      "ĠaquÃŃ": 331,
      "racias": 332,
      "igos": 333,
      "Ġamigos": 334,
      "tes": 335,
      "Ã¡l": 336,
      "Ġalgo": 337,
      "Ġ\"": 338,
      "cia": 339,
      "nes": 340,
      "nta": 341,
      "gun": 342,
      "Ġhab": 343,
      "ver": 344,
      "ct": 345,
      "ecto": 346,
      "ĠDe": 347,
      "Ġj": 348,
      "Ġescucho": 349,
      "Ġhoy": 350,
      "lu": 351,
      "uÃ©nta": 352,
      "uÃ©ntame": 353,
      "Ġpro": 354,
      "Ġide": 355,
      "ter": 356,
      "ĠAquÃŃ": 357,
      "cri": 358,
      "odo": 359,
      "Ġcor": 360,
      "ĠcompaÃ±eros": 361,
      "Ġpo": 362,
      "ĠcompaÃ±ÃŃa": 363,
      "Ġchiste": 364,
      "fi": 365,
      "Ġdi": 366,
      "Qu": 367,
      "Ġbien": 368,
      "Ġsen": 369,
      "fecto": 370,
      "Ġestoy": 371,
      "laro": 372,
      "Ġga": 373,
      "ĠTe": 374,
      "Ġtema": 375,
      "oy": 376,
      "ab": 377,
      "arte": 378,
      "Ġpr": 379,
      "ras": 380,
      "Ġti": 381,
      "Ġresp": 382,
      "Ġpas": 383,
      "Ġsomos": 384,
      "son": 385,
      "za": 386,
      "Ġcre": 387,
      "tas": 388,
      "tori": 389,
      "Quieres": 390,
      "Ġperson": 391,
      "Ġdel": 392,
      "fici": 393,
      "ĠMe": 394,
      "so": 395,
      "tar": 396,
      "ana": 397,
      "Ġli": 398,
      "ĠH": 399,
      "Ġex": 400,
      "Ġquier": 401,
      "Ġpue": 402,
      "Ġcomo": 403,
      "vo": 404,
      "ena": 405,
      "iÃ³n": 406,
      "Ġrar": 407,
      "Ġcuen": 408,
      "di": 409,
      "Ġpa": 410,
      "Ġsien": 411,
      "Ġcan": 412,
      "ener": 413,
      "Ġser": 414,
      "Ġdeci": 415,
      "ĠB": 416,
      "ĠV": 417,
      "ico": 418,
      "lv": 419,
      "Ġotro": 420,
      "ego": 421,
      "Ġnomb": 422,
      "encia": 423,
      "Ġpe": 424,
      "Ġmi": 425,
      "iene": 426,
      "Ġok": 427,
      "ĠPer": 428,
      "pa": 429,
      "ja": 430,
      "tu": 431,
      "ĠCa": 432,
      "ten": 433,
      "Ġverdad": 434,
      "Ġcamb": 435,
      "Ġcer": 436,
      "ito": 437,
      "Ġcal": 438,
      "uego": 439,
      "Ġva": 440,
      "Ġneces": 441,
      "Ġpregun": 442,
      "va": 443,
      "ada": 444,
      "ble": 445,
      "Ġconver": 446,
      "ida": 447,
      "Ġquieres": 448,
      "Ġeso": 449,
      "gu": 450,
      "Ġsal": 451,
      "saciÃ³n": 452,
      "Ġab": 453,
      "Ġay": 454,
      "Ġyo": 455,
      "orm": 456,
      "Ġrespe": 457,
      "toria": 458,
      "Ġra": 459,
      "Ġmis": 460,
      "Ġsua": 461,
      "ĠLa": 462,
      "Ġgus": 463,
      "ĠCu": 464,
      "Ġpero": 465,
      "ĠdÃŃa": 466,
      "Ã±a": 467,
      "Ġmej": 468,
      "era": 469,
      "egra": 470,
      "Ġvez": 471,
      "ĠðŁĺ": 472,
      "ĠcÃ³mo": 473,
      "ĠClaro": 474,
      "Ġac": 475,
      "Ġan": 476,
      "can": 477,
      "via": 478,
      "luvia": 479,
      "ĠPerfecto": 480,
      "Ġsoy": 481,
      "Ġcansa": 482,
      "Otra": 483,
      "idad": 484,
      "crib": 485,
      "fÃ©": 486,
      "ub": 487,
      "ĠEl": 488,
      "Cu": 489,
      "ĠGracias": 490,
      "Seguimos": 491,
      "Ġmejor": 492,
      "\".": 493,
      "Ġgatos": 494,
      "Ġta": 495,
      "ĠCuÃ©ntame": 496,
      "enta": 497,
      "Ġsuave": 498,
      "Ġsig": 499,
      "ista": 500,
      "demos": 501,
      "Ġnombres": 502,
      "ola": 503,
      "CuÃ¡l": 504,
      "Ġtodo": 505,
      "ale": 506,
      "ĠconversaciÃ³n": 507,
      "Ġayu": 508,
      "ĠU": 509,
      "ĠCuando": 510,
      "ch": 511,
      "ces": 512,
      "ĠtÃº": 513,
      "Ġhi": 514,
      "Ġbaj": 515,
      "ĠcompaÃ±ero": 516,
      "Ġquieras": 517,
      "pita": 518,
      "loque": 519,
      "Ġpoco": 520,
      "des": 521,
      "ial": 522,
      "Ġdis": 523,
      "ciones": 524,
      "pitana": 525,
      "min": 526,
      "esta": 527,
      "ĠestÃ¡": 528,
      "zar": 529,
      "Â»": 530,
      "ĠÂ«": 531,
      "Ġtra": 532,
      "asta": 533,
      "Ġrespon": 534,
      "ru": 535,
      "Ġcuando": 536,
      "Ġvo": 537,
      "jo": 538,
      "Ġalegra": 539,
      "Ġer": 540,
      "esa": 541,
      "Ã©n": 542,
      "enial": 543,
      "Ġseguimos": 544,
      "Ġveces": 545,
      "Ġlluvia": 546,
      "ĠPue": 547,
      "Ġhabla": 548,
      "Ġnecesita": 549,
      "Ġcambi": 550,
      "Ġpeque": 551,
      "eck": 552,
      "Ġacu": 553,
      "rim": 554,
      "Ġidea": 555,
      "ĠSiesta": 556,
      "ĠCapitana": 557,
      "men": 558,
      "tamos": 559,
      "Ġgracias": 560,
      "Ġescuch": 561,
      "Ġop": 562,
      "eza": 563,
      "Ġhilo": 564,
      "Ġhace": 565,
      "sica": 566,
      "ĠGenial": 567,
      "fa": 568,
      "Ġquedo": 569,
      "bre": 570,
      "ul": 571,
      "ĠR": 572,
      "quÃ©": 573,
      "Ġpersona": 574,
      "cre": 575,
      "Ġpesa": 576,
      "Ã¡ct": 577,
      "ĠprÃ¡ct": 578,
      "Ġor": 579,
      "Ġescrib": 580,
      "Ġlas": 581,
      "Ġmismo": 582,
      "Ġcomp": 583,
      "ramos": 584,
      "Ġexp": 585,
      "Ġhablamos": 586,
      "cer": 587,
      "Ġcos": 588,
      "ficial": 589,
      "En": 590,
      "ba": 591,
      "emp": 592,
      "Ġpla": 593,
      "Ġter": 594,
      "Ġton": 595,
      "Ġideas": 596,
      "imo": 597,
      "Ġtres": 598,
      "Ġamigo": 599,
      "zo": 600,
      "Ġ3": 601,
      "end": 602,
      "ÃŃas": 603,
      "ide": 604,
      "Ġap": 605,
      "Ġmen": 606,
      "iente": 607,
      "gin": 608,
      "erdo": 609,
      "Hola": 610,
      "lado": 611,
      "ĠpequeÃ±a": 612,
      "il": 613,
      "lab": 614,
      "eclado": 615,
      "ĠTeclado": 616,
      "Ġar": 617,
      "Ġape": 618,
      "orma": 619,
      "Ġapete": 620,
      "lig": 621,
      "Ġ2": 622,
      "ĠO": 623,
      "Ġcontar": 624,
      "Ġtermin": 625,
      "MÃ¡s": 626,
      "aja": 627,
      "rlo": 628,
      "Ġtal": 629,
      "Ġdeja": 630,
      "istoria": 631,
      "Ġcuenta": 632,
      "gra": 633,
      "tro": 634,
      "Ġtar": 635,
      "Ġmin": 636,
      "dos": 637,
      "ÃŃn": 638,
      "ece": 639,
      "den": 640,
      "Ġtuy": 641,
      "Ġconten": 642,
      "Ġraro": 643,
      "no": 644,
      "Ġni": 645,
      "Ġnada": 646,
      "Ġdesa": 647,
      "Ġhola": 648,
      "mbiÃ©n": 649,
      "Ġcambio": 650,
      "Ġpres": 651,
      "ĠVale": 652,
      "mas": 653,
      "gero": 654,
      "Ġda": 655,
      "Ġfal": 656,
      "til": 657,
      "Ġcosa": 658,
      "cho": 659,
      "unto": 660,
      "Ġemp": 661,
      "Ġapetece": 662,
      "lic": 663,
      "Ġdic": 664,
      "ĠBuen": 665,
      "ĠI": 666,
      "ĠtambiÃ©n": 667,
      "Ġdejamos": 668,
      "Ch": 669,
      "ca": 670,
      "Ġbajito": 671,
      "Ġacuerdo": 672,
      "Ġus": 673,
      "Ġcansado": 674,
      "se": 675,
      "undo": 676,
      "Ġpalab": 677,
      "Ġcontenido": 678,
      "con": 679,
      "jar": 680,
      "Ġ+": 681,
      "Ġfras": 682,
      "Ġmu": 683,
      "hog": 684,
      "Ġdesb": 685,
      "Ġpref": 686,
      "Ġsenti": 687,
      "istad": 688,
      "ĠPuedo": 689,
      "Ġdesahog": 690,
      "arme": 691,
      "Ġprim": 692,
      "tado": 693,
      "ĠSoy": 694,
      "ĠDi": 695,
      "Ġeres": 696,
      "Ġig": 697,
      "ienes": 698,
      "Ġsufici": 699,
      "Ġsuficiente": 700,
      "das": 701,
      "Ġconcre": 702,
      "Ġle": 703,
      "ĠOk": 704,
      "aje": 705,
      "Ġcalma": 706,
      "Ġdesbloque": 707,
      "ĠDime": 708,
      "Ġr": 709,
      "Ġsegu": 710,
      "Ġya": 711,
      "ĠestÃ¡s": 712,
      "pt": 713,
      "Ġcom": 714,
      "ante": 715,
      "compaÃ±": 716,
      "cito": 717,
      "anque": 718,
      "ĠPanque": 719,
      "Ġpaso": 720,
      "ĠPanquecito": 721,
      "ati": 722,
      "Ġnorm": 723,
      "Ġgu": 724,
      "Ġll": 725,
      "cript": 726,
      "Ġligero": 727,
      "Ġnormal": 728,
      "cÃŃa": 729,
      "Ġsab": 730,
      "Ġten": 731,
      "Ġfrase": 732,
      "Ġgan": 733,
      "ĠEso": 734,
      "ĠEstoy": 735,
      "Ġcomida": 736,
      "tr": 737,
      "Ġtrab": 738,
      "Ġ1": 739,
      "Ġclar": 740,
      "Ġamb": 741,
      "istes": 742,
      "Ġinte": 743,
      "Ġinter": 744,
      "Ġhablar": 745,
      "Ġsiento": 746,
      "Ġporque": 747,
      "po": 748,
      "ĠÃº": 749,
      "ĠcuÃ©ntame": 750,
      "tificial": 751,
      "Ġcontigo": 752,
      "Ġrato": 753,
      "Ġgusto": 754,
      "Ġartificial": 755,
      "ligencia": 756,
      "Ġinteligencia": 757,
      "Ġzo": 758,
      "mbre": 759,
      "ĠcafÃ©": 760,
      "Ġzombi": 761,
      "ur": 762,
      "xto": 763,
      "iento": 764,
      "Ġchistes": 765,
      "Ġdime": 766,
      "Ġgato": 767,
      "Ġvar": 768,
      "Ġrespues": 769,
      "Ġcreati": 770,
      "Ġdecirlo": 771,
      "cena": 772,
      "Ġas": 773,
      "Ġman": 774,
      "orta": 775,
      "Ġsientes": 776,
      "Ġnecesitas": 777,
      "Ġesta": 778,
      "Ġforma": 779,
      "Ġhay": 780,
      "Ġsea": 781,
      "Ġtonter": 782,
      "ĠJ": 783,
      "diÃ³": 784,
      "Ġpregunta": 785,
      "entana": 786,
      "ĠvacÃŃa": 787,
      "ion": 788,
      "Ġaun": 789,
      "ĠsÃ©": 790,
      "ient": 791,
      "Ġhistoria": 792,
      "Ġambient": 793,
      "Ġaunque": 794,
      "um": 795,
      "Ġob": 796,
      "Ġespa": 797,
      "Ã¡lido": 798,
      "canso": 799,
      "odemos": 800,
      "siÃ³n": 801,
      "ĠPodemos": 802,
      "Ġrespuesta": 803,
      "iv": 804,
      "utos": 805,
      "Ġpar": 806,
      "Ġmm": 807,
      "ĠlÃŃn": 808,
      "Ġprogra": 809,
      "Ġlleg": 810,
      "ĠlÃŃne": 811,
      "Ġprograma": 812,
      "beza": 813,
      "ero": 814,
      "Ġvue": 815,
      "Ġcabeza": 816,
      "Ġperfecto": 817,
      "Ġtuyo": 818,
      "nombre": 819,
      "uda": 820,
      "ract": 821,
      "Ġlla": 822,
      "Ġcambia": 823,
      "Ġmenos": 824,
      "fica": 825,
      "Ġsir": 826,
      "eo": 827,
      "sin": 828,
      "ĠQuÃ©": 829,
      "Ġvari": 830,
      "Otro": 831,
      "pi": 832,
      "otes": 833,
      "Ġemo": 834,
      "igotes": 835,
      "ĠSin": 836,
      "magin": 837,
      "Ġhacer": 838,
      "ĠBigotes": 839,
      "Ġgusta": 840,
      "?\".": 841,
      "Ġâ": 842,
      "Ġclaro": 843,
      "Ġtienes": 844,
      "Ġma": 845,
      "Ġqueda": 846,
      "Ġcorre": 847,
      "Ġpuedo": 848,
      "Â».": 849,
      "Oye": 850,
      "amos": 851,
      "cti": 852,
      "Ã³d": 853,
      "iencia": 854,
      "Ġgener": 855,
      "Ġpodemos": 856,
      "Ġsent": 857,
      "ol": 858,
      "mpl": 859,
      "Ãºsica": 860,
      "lvÃŃ": 861,
      "Ġminutos": 862,
      "mente": 863,
      "arÃ©": 864,
      "ĠacompaÃ±": 865,
      "Ġenc": 866,
      "ĠEn": 867,
      "Ġcorto": 868,
      "Ġpuede": 869,
      "Ġrespond": 870,
      "Ġorden": 871,
      "Ġsentido": 872,
      "ML": 873,
      "SS": 874,
      "TML": 875,
      "ivo": 876,
      "los": 877,
      "zÃ³n": 878,
      "ĠCSS": 879,
      "Tema": 880,
      "Ġjuego": 881,
      "ĠHTML": 882,
      "Ġaj": 883,
      "Ġchar": 884,
      "pon": 885,
      "aria": 886,
      "Ġmer": 887,
      "Ġhasta": 888,
      "Ġent": 889,
      "ĠEmp": 890,
      "Ġhaces": 891,
      "ctu": 892,
      "ube": 893,
      "Script": 894,
      "ava": 895,
      "uiente": 896,
      "Ġri": 897,
      "ono": 898,
      "Ġlos": 899,
      "Ġluego": 900,
      "ĠMi": 901,
      "ĠLo": 902,
      "Ġcalide": 903,
      "Ġseguir": 904,
      "Ġclara": 905,
      "ĠJava": 906,
      "Ġcalidez": 907,
      "ĠJavaScript": 908,
      "cal": 909,
      "les": 910,
      "ĠcÃ³d": 911,
      "Ġtr": 912,
      "Ġej": 913,
      "Ġviene": 914,
      "Ġcheck": 915,
      "ĠDes": 916,
      "ezas": 917,
      "Ġcharlar": 918,
      "ĠcÃ³digo": 919,
      "bo": 920,
      "nor": 921,
      "Ġdos": 922,
      "Ġese": 923,
      "Ġvic": 924,
      "Ġreg": 925,
      "Ġquiero": 926,
      "tend": 927,
      "Ġignor": 928,
      "Ġvictoria": 929,
      "ĠpÃ¡": 930,
      "Ġpunto": 931,
      "Ġrespeto": 932,
      "Ġayudo": 933,
      "Ġtriste": 934,
      "Buen": 935,
      "Ġto": 936,
      "Ġmodo": 937,
      "Ã¡n": 938,
      "Ġopener": 939,
      "ĠprÃ¡ctico": 940,
      "Charla": 941,
      "je": 942,
      "encio": 943,
      "Ġolv": 944,
      "ĠCh": 945,
      "Ġcaos": 946,
      "Ġsirve": 947,
      "ĠajÃ¡": 948,
      "Ġtrabaj": 949,
      "umor": 950,
      "ĠlÃŃneas": 951,
      "du": 952,
      "tho": 953,
      "ytho": 954,
      "ĠF": 955,
      "iones": 956,
      "Ġseg": 957,
      "tir": 958,
      "ĠPytho": 959,
      "Ġayud": 960,
      "ĠUn": 961,
      "Ġfalta": 962,
      "Ġgeneral": 963,
      "ĠPython": 964,
      "lla": 965,
      "ĠoÃŃ": 966,
      "Ġescena": 967,
      "ins": 968,
      "Ġcha": 969,
      "Ġlocal": 970,
      "Ġcrear": 971,
      "lvas": 972,
      "ĠprÃ¡ctica": 973,
      "Ġvuelvas": 974,
      "mÃ¡": 975,
      "mistad": 976,
      "ud": 977,
      "ĠAmistad": 978,
      "Ġpalabras": 979,
      "Ġdesahogarte": 980,
      "ĠasÃŃ": 981,
      "ctive": 982,
      "san": 983,
      "tin": 984,
      "ota": 985,
      "Ġtiene": 986,
      "Ġna": 987,
      "ĠSe": 988,
      "Ġporfa": 989,
      "Ġdescanso": 990,
      "Ġcambiar": 991,
      "ĠBuena": 992,
      "Le": 993,
      "efa": 994,
      "otal": 995,
      "Ġduda": 996,
      "Ġtotal": 997,
      "cial": 998,
      "texto": 999,
      "Ġcontexto": 1000,
      "ĠSigo": 1001,
      "rido": 1002,
      "tras": 1003,
      "Ġjefa": 1004,
      "luta": 1005,
      "soluta": 1006,
      "Ġabsoluta": 1007,
      "Ġsiguiente": 1008,
      "Ġtarde": 1009,
      "Ġpresencia": 1010,
      "Ġregu": 1011,
      "Ġinten": 1012,
      "Ġregular": 1013,
      "izar": 1014,
      "ros": 1015,
      "rend": 1016,
      "erÃŃa": 1017,
      "Ġpract": 1018,
      "Ġraros": 1019,
      "Ġescribir": 1020,
      "Ġpractic": 1021,
      "nte": 1022,
      "ÃŃsica": 1023,
      "dor": 1024,
      "resco": 1025,
      "Ġfun": 1026,
      "ĠfÃŃsica": 1027,
      "ĠTiene": 1028,
      "Ġbuenas": 1029,
      "Ġpaseo": 1030,
      "ĠðŁĺ´": 1031,
      "Ġsentiste": 1032,
      "tÃ³": 1033,
      "vidad": 1034,
      "ige": 1035,
      "Ġsobre": 1036,
      "Ġfue": 1037,
      "Ġabur": 1038,
      "ĠRes": 1039,
      "Ġmuch": 1040,
      "trono": 1041,
      "Ġllave": 1042,
      "Ġordenar": 1043,
      "Ġaburrido": 1044,
      "tronom": 1045,
      "ujar": 1046,
      "Ġson": 1047,
      "ĠmaÃ±": 1048,
      "tuos": 1049,
      "Ġcerramos": 1050,
      "Ġrespetuos": 1051,
      "ĠmaÃ±ana": 1052,
      "ga": 1053,
      "lica": 1054,
      "ndo": 1055,
      "Ġcas": 1056,
      "Ġperros": 1057,
      "Ġimagin": 1058,
      "cel": 1059,
      "Ġpregunto": 1060,
      "Ġprefieres": 1061,
      "mÃ¡t": 1062,
      "emos": 1063,
      "gÃŃa": 1064,
      "ton": 1065,
      "ano": 1066,
      "Ġmil": 1067,
      "ĠUna": 1068,
      "Ġencaja": 1069,
      "Ġentre": 1070,
      "Ġchat": 1071,
      "cciÃ³n": 1072,
      "astronom": 1073,
      "Ġgana": 1074,
      "Ġgastronom": 1075,
      "Ġcuentas": 1076,
      "ĠvolvÃŃ": 1077,
      "Ġconcreta": 1078,
      "Ġvariante": 1079,
      "Ġignoro": 1080,
      "Ġoigo": 1081,
      "Ġbloque": 1082,
      "Ġlate": 1083,
      "Ġcaja": 1084,
      "Ġimp": 1085,
      "Ġrarezas": 1086,
      "Ġparece": 1087,
      "fin": 1088,
      "aro": 1089,
      "aste": 1090,
      "Ġqui": 1091,
      "Ġcons": 1092,
      "Ã³nde": 1093,
      "Ġinv": 1094,
      "Ġcorta": 1095,
      "Ġespacio": 1096,
      "Ġemoj": 1097,
      "ifica": 1098,
      "ľ¨": 1099,
      "ergÃŃa": 1100,
      "las": 1101,
      "ansan": 1102,
      "ĠenergÃŃa": 1103,
      "ĠCansan": 1104,
      "Ġpersonaje": 1105,
      "Ġescucha": 1106,
      "Ġdicho": 1107,
      "Ġsabes": 1108,
      "Ġâľ¨": 1109,
      "ĠCansancio": 1110,
      "Al": 1111,
      "uer": 1112,
      "Ġdeb": 1113,
      "igas": 1114,
      "ĠDon": 1115,
      "ĠCafÃ©": 1116,
      "Ġcercan": 1117,
      "licar": 1118,
      "ĠÃºtil": 1119,
      "Ġejemp": 1120,
      "tonces": 1121,
      ".\"": 1122,
      "el": 1123,
      "mar": 1124,
      "miento": 1125,
      "olo": 1126,
      "puÃ©": 1127,
      "eso": 1128,
      "Ġconf": 1129,
      "Ġestru": 1130,
      "Ġempez": 1131,
      "Ġdices": 1132,
      "Ġmerece": 1133,
      "puÃ©s": 1134,
      "Ġestructu": 1135,
      "De": 1136,
      "Ġpan": 1137,
      "Ġlen": 1138,
      "Ã¡sico": 1139,
      "Ġcada": 1140,
      "Ġcharlando": 1141,
      "mento": 1142,
      "Ġprimera": 1143,
      "Ġayudarte": 1144,
      "Ġcercano": 1145,
      "py": 1146,
      "uana": 1147,
      "zco": 1148,
      "Ġro": 1149,
      "Ġmo": 1150,
      "Ġsol": 1151,
      "Ġrecon": 1152,
      "Ġperuana": 1153,
      "ĠðŁĺĤ": 1154,
      "Ġcambias": 1155,
      "bia": 1156,
      "ey": 1157,
      "gan": 1158,
      "iÃ³": 1159,
      "ĠcÃ¡l": 1160,
      "ĠdÃŃas": 1161,
      "Ġdigas": 1162,
      "Ġnue": 1163,
      "ĠPor": 1164,
      "Ġcompara": 1165,
      "empo": 1166,
      "Ġdame": 1167,
      "Ġprimero": 1168,
      "ĠtonterÃŃa": 1169,
      "Ġtrabajo": 1170,
      "Ġrespetuoso": 1171,
      "tÃ¡": 1172,
      "ĠÃ¡n": 1173,
      "Ġcier": 1174,
      "Ġag": 1175,
      "ĠtÃ©": 1176,
      "Ġmundo": 1177,
      "Ġqueso": 1178,
      "Ġvivo": 1179,
      "regun": 1180,
      "Ġele": 1181,
      "ecciÃ³n": 1182,
      "Ġfin": 1183,
      "Ġsuena": 1184,
      "tual": 1185,
      "Ġcambiamos": 1186,
      "ele": 1187,
      "ha": 1188,
      "iza": 1189,
      "osi": 1190,
      "rec": 1191,
      "mple": 1192,
      "uele": 1193,
      "Ġnombre": 1194,
      "guaje": 1195,
      "Ġaclar": 1196,
      "celente": 1197,
      "ĠpanzÃ³n": 1198,
      "Ġlenguaje": 1199,
      "¸ı": 1200,
      "ï¸ı": 1201,
      "ens": 1202,
      "Ġsigo": 1203,
      "Ġventana": 1204,
      "Ġbre": 1205,
      "Ġinf": 1206,
      "Ġdespa": 1207,
      "Ãºn": 1208,
      "Ġantes": 1209,
      "Ġdistin": 1210,
      "ĠpÃ¡gin": 1211,
      "Que": 1212,
      "ĠQue": 1213,
      "oti": 1214,
      "Ġaud": 1215,
      "rato": 1216,
      "Ġesa": 1217,
      "Ġconv": 1218,
      "ĠSig": 1219,
      "ĠversiÃ³n": 1220,
      "ĠTrato": 1221,
      "Ġseas": 1222,
      "Ġtibia": 1223,
      "Ġtiempo": 1224,
      "Ġpasarme": 1225,
      "Ġsign": 1226,
      "Entras": 1227,
      "Ġconcreto": 1228,
      "ĠEmpi": 1229,
      "La": 1230,
      "dio": 1231,
      "ea": 1232,
      "iz": 1233,
      "Ġcr": 1234,
      "entar": 1235,
      "Ġpi": 1236,
      "Ġparte": 1237,
      "Ġdo": 1238,
      "ist": 1239,
      "isiÃ³n": 1240,
      "ĠSolo": 1241,
      "Ġform": 1242,
      "ĠPara": 1243,
      "Ġlib": 1244,
      "ĠllegÃ³": 1245,
      "Buenas": 1246,
      "Ġsegundo": 1247,
      "Ġcasa": 1248,
      "cÃ³mo": 1249,
      "Ġdeta": 1250,
      "Ġcono": 1251,
      "dame": 1252,
      "echo": 1253,
      "Ġlar": 1254,
      "Ġreun": 1255,
      "Ġmensa": 1256,
      "Ġpalabra": 1257,
      "Ġ10": 1258,
      "Ġresponder": 1259,
      "Ġdetal": 1260,
      "bes": 1261,
      "Ġampl": 1262,
      "Ġvoy": 1263,
      "inco": 1264,
      "Ġbus": 1265,
      "ierra": 1266,
      "uedes": 1267,
      "Ġrea": 1268,
      "Ġir": 1269,
      "Ġmini": 1270,
      "Ġrara": 1271,
      "Ġestaba": 1272,
      "ĠpÃ¡gina": 1273,
      "Ġaudiencia": 1274,
      "epy": 1275,
      "erpo": 1276,
      "Ġdejar": 1277,
      "Ġev": 1278,
      "Ġlle": 1279,
      "Ġnoch": 1280,
      "Ġamistad": 1281,
      "Ġcuerpo": 1282,
      "zaciÃ³n": 1283,
      "Ġcreepy": 1284,
      "ĠVÃ¡lido": 1285,
      "tura": 1286,
      "Ġacab": 1287,
      "Ġsaber": 1288,
      "Ġtengo": 1289,
      "Ġganas": 1290,
      "Ġfinal": 1291,
      "Ġnoches": 1292,
      "MÃºsica": 1293,
      "ay": 1294,
      "dia": 1295,
      "ror": 1296,
      "vio": 1297,
      "ĠdÃ³nde": 1298,
      "Ġvier": 1299,
      "isa": 1300,
      "ĠTres": 1301,
      "ĠdecidiÃ³": 1302,
      "Ġpel": 1303,
      "Ġerror": 1304,
      "ĠÃ¡nimo": 1305,
      "Ġviernes": 1306,
      "pres": 1307,
      "Ġmal": 1308,
      "Ġnube": 1309,
      "Ġentonces": 1310,
      "ierta": 1311,
      "ĠEx": 1312,
      "ĠðŁĮ": 1313,
      "culo": 1314,
      "ĠTa": 1315,
      "Ġjunto": 1316,
      "Ġproble": 1317,
      "terio": 1318,
      "Ġsigue": 1319,
      "Ġusar": 1320,
      "Ġcreativo": 1321,
      "ortante": 1322,
      "ĠtonterÃŃas": 1323,
      "Ġobs": 1324,
      "Ġregener": 1325,
      "mÃ¡tic": 1326,
      "Ġempezar": 1327,
      "Ġnuevo": 1328,
      "Ġbreve": 1329,
      "ĠreuniÃ³n": 1330,
      "eci": 1331,
      "Ġu": 1332,
      "Ġcolo": 1333,
      "Ġcontamos": 1334,
      "Ġhumor": 1335,
      "iero": 1336,
      "egular": 1337,
      "ĠdespuÃ©s": 1338,
      "Ġsalimos": 1339,
      "Ġtaza": 1340,
      "Ġdistra": 1341,
      "ĠRegular": 1342,
      "Ġplanes": 1343,
      "Ġempujar": 1344,
      "Ġmate": 1345,
      "dic": 1346,
      "lencio": 1347,
      "Ġ=": 1348,
      "Ġpens": 1349,
      "Ġoficial": 1350,
      "ĠmÃŃ": 1351,
      "Ġval": 1352,
      "Ġsilencio": 1353,
      "Ġpropon": 1354,
      "Ġprisa": 1355,
      "Ġpape": 1356,
      "Ġvoz": 1357,
      "Ġtono": 1358,
      "Ġobje": 1359,
      "Ġaclarar": 1360,
      "ĠEmpieza": 1361,
      "cn": 1362,
      "ire": 1363,
      "Ġada": 1364,
      "Ġpub": 1365,
      "Ġpide": 1366,
      "raciÃ³n": 1367,
      "ĠelecciÃ³n": 1368,
      "uente": 1369,
      "iera": 1370,
      "Ġfresco": 1371,
      "Ġalgu": 1372,
      "Ġrev": 1373,
      "Ġsumar": 1374,
      "Ġtira": 1375,
      "ĠHola": 1376,
      "ĠgastronomÃŃa": 1377,
      "Ġadap": 1378,
      "Ġalguien": 1379,
      "Por": 1380,
      "ahora": 1381,
      "bu": 1382,
      "ber": 1383,
      "ĠOtra": 1384,
      "Ġtierra": 1385,
      "ÃŃs": 1386,
      "rable": 1387,
      "Ġvio": 1388,
      "hoy": 1389,
      "rob": 1390,
      "tivo": 1391,
      "Ġrela": 1392,
      "Ġreci": 1393,
      "Ġcul": 1394,
      "guno": 1395,
      "Ġdijo": 1396,
      "Ġtil": 1397,
      "die": 1398,
      "ĠElige": 1399,
      "Ġescribo": 1400,
      "Ġdatos": 1401,
      "Ġmucho": 1402,
      "ĠprogramaciÃ³n": 1403,
      "ĠCheck": 1404,
      "ĠPorque": 1405,
      "ĠmatemÃ¡tic": 1406,
      "rla": 1407,
      "Ġsor": 1408,
      "Ġcoci": 1409,
      "Ġdete": 1410,
      "Ġvale": 1411,
      "ing": 1412,
      "Ġlan": 1413,
      "Ġfa": 1414,
      "Ġsenci": 1415,
      "Ġlibre": 1416,
      "Ġrespetar": 1417,
      "chos": 1418,
      "Ġplan": 1419,
      "Check": 1420,
      "Ġguar": 1421,
      "Ġganchos": 1422,
      "ĠoÃŃrla": 1423,
      "Ġejemplo": 1424,
      "Ġmensaj": 1425,
      "Ġpapel": 1426,
      "cla": 1427,
      "edad": 1428,
      "id": 1429,
      "ible": 1430,
      "Ġaire": 1431,
      "ientes": 1432,
      "Ġentend": 1433,
      "vers": 1434,
      "Ġjaja": 1435,
      "Ġpreguntas": 1436,
      "vaciÃ³n": 1437,
      "ultado": 1438,
      "ormaciÃ³n": 1439,
      "Ġterminamos": 1440,
      "Ġolvida": 1441,
      "Ġsonido": 1442,
      "Ġquie": 1443,
      "Dorm": 1444,
      "Lo": 1445,
      "Min": 1446,
      "ej": 1447,
      "historia": 1448,
      "ual": 1449,
      "viera": 1450,
      "Ġpend": 1451,
      "Ġdemas": 1452,
      "Ġmente": 1453,
      "dorable": 1454,
      "ĠbÃ¡sico": 1455,
      "Ã³nimo": 1456,
      "Ġgente": 1457,
      "Ġfu": 1458,
      "ĠAdorable": 1459,
      "Ġsido": 1460,
      "Ġtuviera": 1461,
      "ĠMisiÃ³n": 1462,
      "ciona": 1463,
      "Ġcumpl": 1464,
      "ĠanÃ³nimo": 1465,
      "ilÃ³n": 1466,
      "Ġtuya": 1467,
      "Ġuso": 1468,
      "Ġigual": 1469,
      "Ġdesbloqueo": 1470,
      "Ġtodos": 1471,
      "ĠtÃ©cn": 1472,
      "Ġdetalle": 1473,
      "DormilÃ³n": 1474,
      "Mini": 1475,
      "Ġdemasia": 1476,
      "Ġcumplida": 1477,
      "Puedes": 1478,
      "car": 1479,
      "dir": 1480,
      "nÃ³": 1481,
      "ober": 1482,
      "rÃŃa": 1483,
      "tte": 1484,
      "tmo": 1485,
      "ua": 1486,
      "Ġera": 1487,
      "Ġome": 1488,
      "toma": 1489,
      "Ġtemas": 1490,
      "Ġbor": 1491,
      "ĠSeguimos": 1492,
      "oner": 1493,
      "ĠTi": 1494,
      "lette": 1495,
      "ĠNegra": 1496,
      "ĠNube": 1497,
      "ĠGober": 1498,
      "ĠsensaciÃ³n": 1499,
      "Ġpuedas": 1500,
      "ĠsalÃ³n": 1501,
      "Ġmisterio": 1502,
      "ĠðŁĺĶ": 1503,
      "Ġritmo": 1504,
      "tendido": 1505,
      "ĠolviÃ³": 1506,
      "Ġnadie": 1507,
      "Alguno": 1508,
      "Ġdespacho": 1509,
      "ĠdistracciÃ³n": 1510,
      "Ġtilde": 1511,
      "Ġomelette": 1512,
      "ĠGobernÃ³": 1513,
      "Or": 1514,
      "jos": 1515,
      "lico": 1516,
      "nar": 1517,
      "utori": 1518,
      "Ġcele": 1519,
      "Ġpuer": 1520,
      "Ġesp": 1521,
      "Ġgraci": 1522,
      "ĠAutori": 1523,
      "petado": 1524,
      "ĠestarÃ©": 1525,
      "ĠHab": 1526,
      "ĠBien": 1527,
      "Ġcerca": 1528,
      "ĠðŁĺħ": 1529,
      "ĠUf": 1530,
      "ĠfaltÃ³": 1531,
      "ĠRespetado": 1532,
      "ganizar": 1533,
      "Ġreactive": 1534,
      "Ġmensajes": 1535,
      "Ġceleb": 1536,
      "Ġpuerta": 1537,
      "Ġgracia": 1538,
      "ĠAutorizaciÃ³n": 1539,
      "Riv": 1540,
      "fo": 1541,
      "mÃ¡s": 1542,
      "mana": 1543,
      "van": 1544,
      "viv": 1545,
      "ervio": 1546,
      "Ġvir": 1547,
      "Ã±or": 1548,
      "ĠCinco": 1549,
      "Ġalto": 1550,
      "Ġsus": 1551,
      "iau": 1552,
      "Ġresultado": 1553,
      "Ġsemana": 1554,
      "vemos": 1555,
      "ĠMiau": 1556,
      "sobre": 1557,
      "Ġsientas": 1558,
      "Ġcanal": 1559,
      "Ġdiscu": 1560,
      "Ġterminar": 1561,
      "Ġcuentan": 1562,
      "Ġguion": 1563,
      "Ġmanda": 1564,
      "Ġespacial": 1565,
      "ĠSeÃ±or": 1566,
      "ĠinformaciÃ³n": 1567,
      "ĠExcelente": 1568,
      "ÃŃsimo": 1569,
      "ĠTiramos": 1570,
      "Rival": 1571,
      "viviste": 1572,
      "Ġvirtual": 1573,
      "sobreviviste": 1574,
      "CuÃ©ntame": 1575,
      "Pla": 1576,
      "list": 1577,
      "prend": 1578,
      "ylist": 1579,
      "§ï¸ı": 1580,
      "arco": 1581,
      "ento": 1582,
      "Ġdefin": 1583,
      "Ġnub": 1584,
      "egrÃŃa": 1585,
      "Ġfon": 1586,
      "Ġmedio": 1587,
      "Ġrepe": 1588,
      "Ġsub": 1589,
      "Ġresol": 1590,
      "Ġcontra": 1591,
      "ĠEse": 1592,
      "Ġexa": 1593,
      "Ġcerra": 1594,
      "Ġayer": 1595,
      "ĠacciÃ³n": 1596,
      "Ġopera": 1597,
      "cretamos": 1598,
      "Ġaprend": 1599,
      "Ġtarea": 1600,
      "concretamos": 1601,
      "Ġpracticando": 1602,
      "Ġimaginaria": 1603,
      "Ġestructura": 1604,
      "Ġlargo": 1605,
      "ĠðŁĮ§ï¸ı": 1606,
      "Ġsorprend": 1607,
      "Ġfuera": 1608,
      "Playlist": 1609,
      "Ġnubes": 1610,
      "Ġresolver": 1611,
      "Fue": 1612,
      "Hoy": 1613,
      "Sil": 1614,
      "dena": 1615,
      "fortante": 1616,
      "ies": 1617,
      "ite": 1618,
      "mul": 1619,
      "ves": 1620,
      "Ġponer": 1621,
      "Ġdon": 1622,
      "Ġsola": 1623,
      "Ġfuente": 1624,
      "ĠPre": 1625,
      "ĠAl": 1626,
      "Ġbuena": 1627,
      "Ġsiemp": 1628,
      "uso": 1629,
      "lumen": 1630,
      "ĠHecho": 1631,
      "Ġseries": 1632,
      "ĠVay": 1633,
      "Ã±ade": 1634,
      "Ġvolumen": 1635,
      "Ġacumul": 1636,
      "mentos": 1637,
      "ĠIA": 1638,
      "Ġprefer": 1639,
      "Ġdesahogarme": 1640,
      "ĠoÃŃrlo": 1641,
      "Ġreconfortante": 1642,
      "Ġfaena": 1643,
      "Ġsencilla": 1644,
      "Silencio": 1645,
      "Ġdonde": 1646,
      "Ġsiempre": 1647,
      "ĠVaya": 1648,
      "ĠacumulÃ³": 1649,
      "Ca": 1650,
      "Pel": 1651,
      "Sub": 1652,
      "Voy": 1653,
      "gas": 1654,
      "king": 1655,
      "lÃ©": 1656,
      "nking": 1657,
      "ompaÃ±": 1658,
      "vas": 1659,
      "Ġza": 1660,
      "ĮĬ": 1661,
      "Ġtan": 1662,
      "ÃŃr": 1663,
      "ÃŃcu": 1664,
      "ĠquerÃŃa": 1665,
      "ord": 1666,
      "Ġtexto": 1667,
      "ĠCompaÃ±": 1668,
      "ðŁĻĤ": 1669,
      "ðŁĮĬ": 1670,
      "Ġverte": 1671,
      "ĠEsa": 1672,
      "culos": 1673,
      "Ġtus": 1674,
      "cep": 1675,
      "Ġpaci": 1676,
      "Ġdecir": 1677,
      "Ġrespetamos": 1678,
      "Ġranking": 1679,
      "Ġdesbloquearte": 1680,
      "Ġcreatividad": 1681,
      "ĠacompaÃ±e": 1682,
      "ĠrespondÃŃ": 1683,
      "ĠðŁĺ´ðŁĻĤ": 1684,
      "ĠmuchÃŃsimo": 1685,
      "ĠdebÃŃa": 1686,
      "Ġamplio": 1687,
      "Ġdetective": 1688,
      "Organizar": 1689,
      "PelÃŃcu": 1690,
      "Subimos": 1691,
      "Ġzapa": 1692,
      "ĠðŁĺ´ðŁĻĤðŁĮĬ": 1693,
      "PelÃŃculas": 1694,
      "Con": 1695,
      "Ex": 1696,
      "Humor": 1697,
      "Lluvia": 1698,
      "Modo": 1699,
      "ds": 1700,
      "arde": 1701,
      "Ġaten": 1702,
      "Ġdep": 1703,
      "Ġmar": 1704,
      "ĠmÃºsica": 1705,
      "Ġuno": 1706,
      "date": 1707,
      "icio": 1708,
      "Ġsof": 1709,
      "mpaÃ±ada": 1710,
      "ĠEmpaÃ±ada": 1711,
      "Ġrepres": 1712,
      "ĠTarde": 1713,
      "sabes": 1714,
      "ĠLej": 1715,
      "Ġproy": 1716,
      "Ġcortas": 1717,
      "ĠMedia": 1718,
      "Ġpads": 1719,
      "ĠVentana": 1720,
      "Ġsaliste": 1721,
      "ĠrazÃ³n": 1722,
      "Ġanal": 1723,
      "cribe": 1724,
      "Ġrespondo": 1725,
      "ĠPuede": 1726,
      "Ġexplicar": 1727,
      "Ġsentir": 1728,
      "ĠFaro": 1729,
      "Letra": 1730,
      "Ġintensa": 1731,
      "Ġemojis": 1732,
      "Ġdistinto": 1733,
      "Ġsignifica": 1734,
      "ĠacabÃ³": 1735,
      "ĠpelÃŃn": 1736,
      "ĠTaza": 1737,
      "Ġpendiente": 1738,
      "Ġsubimos": 1739,
      "Ġsorprendido": 1740,
      "ĠatenciÃ³n": 1741,
      "ĠLejano": 1742,
      "Don": 1743,
      "Yo": 1744,
      "rra": 1745,
      "aran": 1746,
      "iori": 1747,
      "sul": 1748,
      "ÃŃdate": 1749,
      "Ġespe": 1750,
      "Ġvi": 1751,
      "Ġnos": 1752,
      "Ġnota": 1753,
      "mpo": 1754,
      "ecta": 1755,
      "Ġgaran": 1756,
      "tizar": 1757,
      "Ġref": 1758,
      "Ġreco": 1759,
      "ĠLuego": 1760,
      "Ġprob": 1761,
      "Ġpriori": 1762,
      "ĠCuÃŃdate": 1763,
      "Ġterminemos": 1764,
      "licaciones": 1765,
      "Ġimporta": 1766,
      "Ġcomparado": 1767,
      "Ġrevis": 1768,
      "Ġgarantizar": 1769,
      "Hasta": 1770,
      "bles": 1771,
      "cas": 1772,
      "hÃŃ": 1773,
      "lti": 1774,
      "trar": 1775,
      "ĠahÃŃ": 1776,
      "Ġdigo": 1777,
      "Ġconse": 1778,
      "echa": 1779,
      "Ġgra": 1780,
      "Ġfr": 1781,
      "Ġfuego": 1782,
      "ajaja": 1783,
      "dades": 1784,
      "Ġjajaja": 1785,
      "Ġpueda": 1786,
      "Ġcuento": 1787,
      "rimiento": 1788,
      "Ġescuchas": 1789,
      "Ġtardes": 1790,
      "Ġguiones": 1791,
      "Ġtrabas": 1792,
      "ĠÃºlti": 1793,
      "ĠEntendido": 1794,
      "Charlamos": 1795,
      "Ġbloqueo": 1796,
      "Ġemoji": 1797,
      "Ġrol": 1798,
      "Ġagota": 1799,
      "Ġelementos": 1800,
      "osiciÃ³n": 1801,
      "Ġobser": 1802,
      "Ġtirame": 1803,
      "ĠHabla": 1804,
      "Ġpaciencia": 1805,
      "Pregun": 1806,
      "Si": 1807,
      "ado": 1808,
      "ijo": 1809,
      "ende": 1810,
      "Ġconfi": 1811,
      "alma": 1812,
      "Ġbasta": 1813,
      "Ġbarco": 1814,
      "Ġgi": 1815,
      "ĠCalma": 1816,
      "melo": 1817,
      "Ġhaz": 1818,
      "ĠAcompaÃ±": 1819,
      "lemos": 1820,
      "Ġsitu": 1821,
      "ĠEste": 1822,
      "Ġcortos": 1823,
      "Ġdibu": 1824,
      "Ġpersonal": 1825,
      "Ġcuente": 1826,
      "istal": 1827,
      "ulario": 1828,
      "denti": 1829,
      "ĠrÃ¡": 1830,
      "ional": 1831,
      "ĠemociÃ³n": 1832,
      "ĠacompaÃ±ar": 1833,
      "ĠcÃ¡lculos": 1834,
      "Ġcristal": 1835,
      "Ġdocu": 1836,
      "Ġobjetivo": 1837,
      "ĠentendÃŃ": 1838,
      "Ġquieto": 1839,
      "CafÃ©": 1840,
      "ĠsofÃ¡": 1841,
      "Ġproyecto": 1842,
      "Preguntas": 1843,
      "ĠAcompaÃ±ado": 1844,
      "Ġsitua": 1845,
      "Ġdibuja": 1846,
      "</": 1847,
      "No": 1848,
      "cen": 1849,
      "ee": 1850,
      "Â¿": 1851,
      "ĠAgerbot": 1852,
      "ĠâĢ": 1853,
      "osan": 1854,
      "Ġojo": 1855,
      "Ġmoti": 1856,
      "logo": 1857,
      "lojo": 1858,
      "Ġhu": 1859,
      "Ġencon": 1860,
      "Ġfia": 1861,
      "Ġrecu": 1862,
      "Ġrece": 1863,
      "âĢĿ": 1864,
      "Ġju": 1865,
      "Ġprof": 1866,
      "Ġprin": 1867,
      "Ġtipo": 1868,
      "tilla": 1869,
      "Ġleer": 1870,
      "Ġhacerlo": 1871,
      "Ġquedamos": 1872,
      "Ġpracticas": 1873,
      "Ġimaginario": 1874,
      "Ġinventa": 1875,
      "Ġproblema": 1876,
      "Ġcolor": 1877,
      "Ġadaptamos": 1878,
      "vanzar": 1879,
      "Ġzapatilla": 1880,
      "Ġespecial": 1881,
      "ĠâĢľ": 1882,
      "ĠmotivaciÃ³n": 1883,
      "Ġreceta": 1884,
      "bas": 1885,
      "gre": 1886,
      "if": 1887,
      "jÃ³": 1888,
      "tri": 1889,
      "endo": 1890,
      "Ġater": 1891,
      "Ġtro": 1892,
      "Ġhey": 1893,
      "mbra": 1894,
      "rizar": 1895,
      "Ġretoma": 1896,
      "Ġcapa": 1897,
      "Ġins": 1898,
      "Ġingre": 1899,
      "ĠNombra": 1900,
      "Ġhablo": 1901,
      "Ġprop": 1902,
      "abierta": 1903,
      "Ġpersonas": 1904,
      "Ġbajas": 1905,
      "Ġnecesitabas": 1906,
      "Ġescuches": 1907,
      "Ġordena": 1908,
      "ĠIn": 1909,
      "Ġdesbloquearme": 1910,
      "Ġinterru": 1911,
      "ĠpÃ¡rra": 1912,
      "Ġmuchas": 1913,
      "Ġentreabierta": 1914,
      "tural": 1915,
      "ecido": 1916,
      "Ġpensar": 1917,
      "Ġfondo": 1918,
      "Ġoperaciones": 1919,
      "Ġponerlo": 1920,
      "Ġprioridades": 1921,
      "Ġfrena": 1922,
      "Ġaterrizar": 1923,
      "Ġretomamos": 1924,
      "Ġingred": 1925,
      "Elig": 1926,
      "bur": 1927,
      "fecta": 1928,
      "mien": 1929,
      "migo": 1930,
      "pre": 1931,
      "Ġ<": 1932,
      "Ġ[": 1933,
      "esante": 1934,
      "Ġconmigo": 1935,
      "mpio": 1936,
      "Ġreal": 1937,
      "ĠAbur": 1938,
      "ĠMan": 1939,
      "usiÃ³n": 1940,
      "ĠGana": 1941,
      "Ġotras": 1942,
      "Ġdirec": 1943,
      "able": 1944,
      "Ġlimpio": 1945,
      "ĠPerfecta": 1946,
      "Ġnecesito": 1947,
      "Ġbajo": 1948,
      "Ġcomporta": 1949,
      "Ġtermina": 1950,
      "Ġinteresante": 1951,
      "Ġllegas": 1952,
      "ĠFresco": 1953,
      "ĠfunciÃ³n": 1954,
      "regunta": 1955,
      "ĠpidiÃ³": 1956,
      "Ġlibro": 1957,
      "Ġregeneraste": 1958,
      "versidad": 1959,
      "Ġaprender": 1960,
      "Eliges": 1961,
      "ĠAburrimiento": 1962,
      "Ġcomportamiento": 1963,
      "be": 1964,
      "iano": 1965,
      "jarte": 1966,
      "rerÃŃa": 1967,
      "viano": 1968,
      "zaste": 1969,
      "ĠÃ©": 1970,
      "escena": 1971,
      "Ġdoy": 1972,
      "ĠÂ¿\"": 1973,
      "untos": 1974,
      "Ġhuele": 1975,
      "Ġgee": 1976,
      "Ġverdu": 1977,
      "ĠalegrÃŃa": 1978,
      "Ġcontro": 1979,
      "Ġdif": 1980,
      "Ġliviano": 1981,
      "rupo": 1982,
      "Ġcambies": 1983,
      "Ġescribe": 1984,
      "ĠImagin": 1985,
      "ĠtenÃŃa": 1986,
      "ĠmanÃŃa": 1987,
      "ĠacompaÃ±o": 1988,
      "Ġmerecido": 1989,
      "ctual": 1990,
      "ĠDescanso": 1991,
      "Buenos": 1992,
      "Ġmojarte": 1993,
      "ĠcomparaciÃ³n": 1994,
      "Ġcierro": 1995,
      "Ġelemento": 1996,
      "Ġformulario": 1997,
      "ĠlibrerÃŃa": 1998,
      "Ġusa": 1999,
      "Ġproponga": 2000,
      "Ġcocinar": 2001,
      "Ġlanzaste": 2002,
      "Ġresolverlo": 2003,
      "Ġdepende": 2004,
      "Ġconsejos": 2005,
      "ĠÃºltimo": 2006,
      "Simple": 2007,
      "Ġinventamos": 2008,
      "Ġgeek": 2009,
      "Ġverduras": 2010,
      "ĠImagina": 2011,
      "Gracias": 2012,
      "Pract": 2013,
      "dru": 2014,
      "gada": 2015,
      "miz": 2016,
      "plo": 2017,
      "sar": 2018,
      "tica": 2019,
      "Ġclic": 2020,
      "Ġagra": 2021,
      "Ġpego": 2022,
      "quito": 2023,
      "Ġocu": 2024,
      "Ġnervio": 2025,
      "orar": 2026,
      "Ġverbo": 2027,
      "ĠPues": 2028,
      "icamos": 2029,
      "ĠEscribe": 2030,
      "Ġpoquito": 2031,
      "volvÃŃ": 2032,
      "Ġconversar": 2033,
      "Ġsalir": 2034,
      "Ġayuda": 2035,
      "Ġvol": 2036,
      "Ġleo": 2037,
      "Ġmadru": 2038,
      "ĠCharla": 2039,
      "Ġfunciona": 2040,
      "Ġcierre": 2041,
      "hala": 2042,
      "Ġminimiz": 2043,
      "Ġpublicar": 2044,
      "idar": 2045,
      "Ġdefine": 2046,
      "Explo": 2047,
      "Ġanalizar": 2048,
      "Ġespecialidad": 2049,
      "Practicamos": 2050,
      "Ġmadrugada": 2051,
      "Ġminimizarla": 2052,
      "Exploramos": 2053,
      "Cier": 2054,
      "ad": 2055,
      "gen": 2056,
      "nimo": 2057,
      "zos": 2058,
      "Ãģ": 2059,
      "sur": 2060,
      "Ġscript": 2061,
      "cidad": 2062,
      "ĠvÃ¡lido": 2063,
      "Ġconsul": 2064,
      "ecuen": 2065,
      "ĠCon": 2066,
      "uest": 2067,
      "Ġestu": 2068,
      "ĠdecisiÃ³n": 2069,
      "tengo": 2070,
      "Ġabsur": 2071,
      "Ġnecesitaba": 2072,
      "Ġopciones": 2073,
      "Ġcomprob": 2074,
      "Ġplay": 2075,
      "Ġgancho": 2076,
      "Ġconsecuen": 2077,
      "Ġrole": 2078,
      "Ġrecono": 2079,
      "ĠQueda": 2080,
      "Ġconozco": 2081,
      "ĠmatemÃ¡ticas": 2082,
      "Ġguardo": 2083,
      "Ġrepetir": 2084,
      "Ġgiro": 2085,
      "Ġtrozos": 2086,
      "Ġingredientes": 2087,
      "Ãģnimo": 2088,
      "fiero": 2089,
      "nas": 2090,
      "otan": 2091,
      "entro": 2092,
      "Ġduele": 2093,
      "qui": 2094,
      "ÃŃtica": 2095,
      "cil": 2096,
      "cir": 2097,
      "isto": 2098,
      "ecu": 2099,
      "Ã±al": 2100,
      "Ġenla": 2101,
      "ueba": 2102,
      "ĠNada": 2103,
      "ĠseÃ±al": 2104,
      "Ġdiversidad": 2105,
      "ĠHoy": 2106,
      "diciÃ³n": 2107,
      "Ġmiro": 2108,
      "Ġsaluda": 2109,
      "Ġans": 2110,
      "Ġescucharte": 2111,
      "Ġplanta": 2112,
      "Ġdato": 2113,
      "ĠEmpujar": 2114,
      "Ġejecu": 2115,
      "ĠcrÃŃtica": 2116,
      "Ġdoble": 2117,
      "Ġlleva": 2118,
      "Ġvalidar": 2119,
      "ĠrelaciÃ³n": 2120,
      "ĠPrefiero": 2121,
      "ĠCompaÃ±ÃŃa": 2122,
      "Ġfiables": 2123,
      "Ġordenador": 2124,
      "(\"": 2125,
      "cto": 2126,
      "dy": 2127,
      "dico": 2128,
      "edo": 2129,
      "gar": 2130,
      "gir": 2131,
      "pido": 2132,
      "ĠcÃŃr": 2133,
      "Ġau": 2134,
      "Ġactual": 2135,
      "teza": 2136,
      "Ã¡r": 2137,
      "ech": 2138,
      "Ġher": 2139,
      "ĠPr": 2140,
      "Ġalter": 2141,
      "Ġintro": 2142,
      "ĠMu": 2143,
      "ĠEstÃ¡": 2144,
      "Ġpedir": 2145,
      "Ġmiedo": 2146,
      "Ġcerteza": 2147,
      "Ġcalend": 2148,
      "mino": 2149,
      "ĠpequeÃ±": 2150,
      "Ġexplica": 2151,
      "Ġseguro": 2152,
      "trÃ³": 2153,
      "Ġclaridad": 2154,
      "Ġâĺ": 2155,
      "Ġregional": 2156,
      "Ġgastronomia": 2157,
      "Ġrefieres": 2158,
      "ĠrÃ¡pido": 2159,
      "Ġagrade": 2160,
      "ĠcÃŃrculo": 2161,
      "Ġalterna": 2162,
      "Ġintrodu": 2163,
      "Ġcalendario": 2164,
      "Ok": 2165,
      "Vol": 2166,
      "ge": 2167,
      "par": 2168,
      "rge": 2169,
      "ĠĠ": 2170,
      "Ġcoti": 2171,
      "Ġcuest": 2172,
      "Ġcolab": 2173,
      "Ġof": 2174,
      "Ġeti": 2175,
      "Ġvas": 2176,
      "Ã©s": 2177,
      "Ã¡logo": 2178,
      "Ġne": 2179,
      "Ġenfo": 2180,
      "tito": 2181,
      "tiva": 2182,
      "Ġsurge": 2183,
      "Ġbuenos": 2184,
      "Ġinc": 2185,
      "ĠdiÃ¡logo": 2186,
      "Ġnecesaria": 2187,
      "Ġratito": 2188,
      "Ġdisp": 2189,
      "Ġexpres": 2190,
      "Ġexplico": 2191,
      "Ġpreguntaba": 2192,
      "Ġvuel": 2193,
      "ĠsentÃŃa": 2194,
      "Ġsignos": 2195,
      "Ġformu": 2196,
      "ĠregenerÃ©": 2197,
      "Ġreciente": 2198,
      "Ġmarca": 2199,
      "Ġprobar": 2200,
      "Ġrecuerdo": 2201,
      "Ġleerte": 2202,
      "Ġcapacidad": 2203,
      "Volvemos": 2204,
      "Ġcotidi": 2205,
      "Ġcolaborar": 2206,
      "Ġetique": 2207,
      "Ġnecesariamente": 2208,
      "Ey": 2209,
      "Fi": 2210,
      "Wi": 2211,
      "iar": 2212,
      "lÃ¡sico": 2213,
      "nco": 2214,
      "ses": 2215,
      "ura": 2216,
      "zul": 2217,
      "ĠQu": 2218,
      "ĠWi": 2219,
      "Ġama": 2220,
      "ĠaÃ±ade": 2221,
      "Ġazul": 2222,
      "Ġpuso": 2223,
      "lanco": 2224,
      "ĠmÃ©": 2225,
      "cimiento": 2226,
      "Ġve": 2227,
      "Ġnin": 2228,
      "Ġbo": 2229,
      "Ġblanco": 2230,
      "Ġqued": 2231,
      "ĠquejÃ³": 2232,
      "Ġfecha": 2233,
      "Ġrele": 2234,
      "Ġperm": 2235,
      "Ġinicio": 2236,
      "Ġsimple": 2237,
      "Ġidenti": 2238,
      "Ġdescan": 2239,
      "cioso": 2240,
      "guna": 2241,
      "ector": 2242,
      "Ġcreando": 2243,
      "Ġabierta": 2244,
      "ĠRec": 2245,
      "Ġorgan": 2246,
      "Ġpresentar": 2247,
      "Ġdesbloquear": 2248,
      "ĠlÃŃnea": 2249,
      "Ġcorreo": 2250,
      "Ġentien": 2251,
      "Ġritual": 2252,
      "ĠintenciÃ³n": 2253,
      "Ġdebe": 2254,
      "Ġejemplos": 2255,
      "Ġconfun": 2256,
      "Ġconviene": 2257,
      "robÃ©": 2258,
      "ĠmatemÃ¡ticos": 2259,
      "Ġcelebrar": 2260,
      "Ġcerrada": 2261,
      "cepto": 2262,
      "Ġcontrolar": 2263,
      "Ġestudi": 2264,
      "Ġabsurdo": 2265,
      "ĠWiFi": 2266,
      "Ġdescanses": 2267,
      "Ġorganiza": 2268,
      "Un": 2269,
      "buen": 2270,
      "lin": 2271,
      "ml": 2272,
      "nifica": 2273,
      "sion": 2274,
      "tÃŃ": 2275,
      "tÃ³n": 2276,
      "tml": 2277,
      "udos": 2278,
      "xito": 2279,
      "Ġdef": 2280,
      "tan": 2281,
      "cias": 2282,
      "inaria": 2283,
      "Ġelijo": 2284,
      "isible": 2285,
      "Ġversion": 2286,
      "Ġsup": 2287,
      "Ġresta": 2288,
      "Ġestar": 2289,
      "itas": 2290,
      "Ġjuntos": 2291,
      "luye": 2292,
      "Ġpasos": 2293,
      "ĠHa": 2294,
      "Ġexcla": 2295,
      "Ġpuedes": 2296,
      "Ġhizo": 2297,
      "Ġdispon": 2298,
      "Ġcompar": 2299,
      "Ġexplic": 2300,
      "Ġapar": 2301,
      "Ġinterpre": 2302,
      "Ġintentar": 2303,
      "Ġinventar": 2304,
      "ĠSignifica": 2305,
      "Ġproblemas": 2306,
      "Ġdemasiadas": 2307,
      "Ġdiscutir": 2308,
      "Ġrepresenta": 2309,
      "Ġrevisar": 2310,
      "Ġdocumento": 2311,
      "Ġencontrar": 2312,
      "Ġprinci": 2313,
      "ĠÃ©xito": 2314,
      "ĠPrueba": 2315,
      "ĠMucho": 2316,
      "Ġexclama": 2317,
      "Ġdisponible": 2318,
      "\",": 2319,
      "bil": 2320,
      "clar": 2321,
      "ev": 2322,
      "he": 2323,
      "ites": 2324,
      "para": 2325,
      "Ġ{": 2326,
      "ĠYo": 2327,
      "ĠcÃ¡lido": 2328,
      "Ġcev": 2329,
      "Ġpos": 2330,
      "Ġposi": 2331,
      "Ġtener": 2332,
      "Ġdeclar": 2333,
      "tada": 2334,
      "Ġesti": 2335,
      "igua": 2336,
      "istori": 2337,
      "iche": 2338,
      "Ġlu": 2339,
      "ĠfusiÃ³n": 2340,
      "riÃ³": 2341,
      "Ġsuele": 2342,
      "uestra": 2343,
      "Ġcuan": 2344,
      "Ġhablemos": 2345,
      "Ġexcu": 2346,
      "Ġserv": 2347,
      "Ġconvertir": 2348,
      "Ġresponde": 2349,
      "Ġpresen": 2350,
      "licto": 2351,
      "ĠÃºn": 2352,
      "Ġconflicto": 2353,
      "Debes": 2354,
      "Ġ100": 2355,
      "Ġbuscas": 2356,
      "diciones": 2357,
      "Ġpensando": 2358,
      "Ġcultural": 2359,
      "Ġgran": 2360,
      "ĠsituaciÃ³n": 2361,
      "Ġagradezco": 2362,
      "Ġenfoque": 2363,
      "bilidad": 2364,
      "Ġceviche": 2365,
      "Ġestilo": 2366,
      "istorias": 2367,
      "22": 2368,
      "=\"": 2369,
      "Bien": 2370,
      "OM": 2371,
      "PI": 2372,
      "Ventana": 2373,
      "eta": 2374,
      "fico": 2375,
      "llo": 2376,
      "mal": 2377,
      "nqui": 2378,
      "por": 2379,
      "ste": 2380,
      "vos": 2381,
      "Ġcla": 2382,
      "enda": 2383,
      "Ġatri": 2384,
      "Ġdentro": 2385,
      "Ġcomen": 2386,
      "ÃŃde": 2387,
      "Ġdebo": 2388,
      "Ġvista": 2389,
      "ĠvÃŃde": 2390,
      "ĠcondiciÃ³n": 2391,
      "Ã¡pi": 2392,
      "Ġnar": 2393,
      "ĠSiento": 2394,
      "icciÃ³n": 2395,
      "egos": 2396,
      "ĠlÃ¡pi": 2397,
      "uebo": 2398,
      "Ġrepi": 2399,
      "ĠAh": 2400,
      "ĠAPI": 2401,
      "ĠDigo": 2402,
      "ĠDOM": 2403,
      "Ġindi": 2404,
      "egurar": 2405,
      "ĠestÃ©s": 2406,
      "irÃŃas": 2407,
      "vera": 2408,
      "Ġrespi": 2409,
      "tarme": 2410,
      "Ġliger": 2411,
      "ĠHasta": 2412,
      "Ġdecide": 2413,
      "gual": 2414,
      "ĠÂ«Â¿": 2415,
      "Ġopin": 2416,
      "Ġarch": 2417,
      "ĠIgual": 2418,
      "Ġasegurar": 2419,
      "Ġllega": 2420,
      "ĠDescar": 2421,
      "ĠSigue": 2422,
      "dios": 2423,
      "Ġampliar": 2424,
      "Ġllev": 2425,
      "ĠobstÃ¡": 2426,
      "ĠtÃ©cnica": 2427,
      "ĠpreferirÃŃas": 2428,
      "Contarme": 2429,
      "mpoco": 2430,
      "ĠpÃ¡rrafo": 2431,
      "Ġvolvemos": 2432,
      "Ġejecuta": 2433,
      "Ġcuestion": 2434,
      "Ġnevera": 2435,
      "Ġvuelve": 2436,
      "Ġamable": 2437,
      "ĠquedÃ³": 2438,
      "nquilo": 2439,
      "ĠvÃŃdeo": 2440,
      "ĠlÃ¡piz": 2441,
      "Ġrepite": 2442,
      "Ġindirec": 2443,
      "ĠDescartamos": 2444,
      "Bor": 2445,
      "Hey": 2446,
      "Sab": 2447,
      "Ti": 2448,
      "bl": 2449,
      "cle": 2450,
      "dÃ³nde": 2451,
      "et": 2452,
      "elo": 2453,
      "ges": 2454,
      "gos": 2455,
      "iedad": 2456,
      "ll": 2457,
      "net": 2458,
      "ps": 2459,
      "ucle": 2460,
      "vante": 2461,
      "we": 2462,
      "xis": 2463,
      "zon": 2464,
      "ĴĻ": 2465,
      "eno": 2466,
      "Ġdorm": 2467,
      "unes": 2468,
      "rador": 2469,
      "Ġdead": 2470,
      "taxis": 2471,
      "Ġeco": 2472,
      "Ġven": 2473,
      "Ġvemos": 2474,
      "anza": 2475,
      "Ã¡b": 2476,
      "Ġbri": 2477,
      "Ġbucle": 2478,
      "Ġhum": 2479,
      "ĠhÃ¡b": 2480,
      "deal": 2481,
      "Ġlunes": 2482,
      "ĠClÃ¡sico": 2483,
      "media": 2484,
      "tivas": 2485,
      "ĠEv": 2486,
      "ĠPregunta": 2487,
      "ĠðŁĴĻ": 2488,
      "horabuen": 2489,
      "Ġsuelo": 2490,
      "ĠAÃ±ade": 2491,
      "ĠAcepto": 2492,
      "ĠportÃ¡": 2493,
      "Ġrestar": 2494,
      "ĠNa": 2495,
      "Ġinmedia": 2496,
      "Ġcontin": 2497,
      "ĠcontÃ¡r": 2498,
      "Ġsincer": 2499,
      "Ġsintaxis": 2500,
      "Ġcual": 2501,
      "Ġidear": 2502,
      "Ġsienta": 2503,
      "Ġmiras": 2504,
      "Ġabier": 2505,
      "Ġrazon": 2506,
      "Ġsuaves": 2507,
      "Ġacciones": 2508,
      "Ġacord": 2509,
      "Ġrespondes": 2510,
      "Ġcompr": 2511,
      "Enhorabuen": 2512,
      "Ġaplicaciones": 2513,
      "ĠaprobÃ©": 2514,
      "graf": 2515,
      "ĠIdeal": 2516,
      "Ġllena": 2517,
      "Ġmantengo": 2518,
      "Ġformato": 2519,
      "Ġprogramador": 2520,
      "Ġllamas": 2521,
      "Ġvariedad": 2522,
      "Ġencaj": 2523,
      "ĠMirar": 2524,
      "ĠDesde": 2525,
      "Ġtodas": 2526,
      "Ġsegun": 2527,
      "Lees": 2528,
      "ĠquiÃ©n": 2529,
      "Ġdespacio": 2530,
      "Ġpiezas": 2531,
      "Ġconocimiento": 2532,
      "Ġdejarlo": 2533,
      "Ġpeli": 2534,
      "Ġpropongo": 2535,
      "Ġrecibe": 2536,
      "Ġcelebras": 2537,
      "Ġrecoges": 2538,
      "Ġconfianza": 2539,
      "Ġinterrumpo": 2540,
      "ĠManÃŃa": 2541,
      "Ġscripts": 2542,
      "Ġansiedad": 2543,
      "ĠexplicaciÃ³n": 2544,
      "ĠQuiero": 2545,
      "ĠmÃ©dico": 2546,
      "Ġninguna": 2547,
      "Ġbody": 2548,
      "Ġrelevante": 2549,
      "Ġpresentarme": 2550,
      "Ġcelebrarse": 2551,
      "line": 2552,
      "Ġcuanto": 2553,
      "Borrador": 2554,
      "Sabes": 2555,
      "Tips": 2556,
      "Ġdormir": 2557,
      "Ġdeadline": 2558,
      "Ġbrilla": 2559,
      "ĠportÃ¡til": 2560,
      "Ġinmediato": 2561,
      "ĠcontÃ¡rmelo": 2562,
      "Ġsincero": 2563,
      "ĠacordÃ©": 2564,
      "Enhorabuena": 2565,
      "Avanzar": 2566,
      "Me": 2567,
      "SÃ©": 2568,
      "gÃºn": 2569,
      "ivers": 2570,
      "lÃŃ": 2571,
      "rige": 2572,
      "siones": 2573,
      "yo": 2574,
      "ertura": 2575,
      "arro": 2576,
      "Ġad": 2577,
      "Ġata": 2578,
      "Ġafin": 2579,
      "Ġavanzar": 2580,
      "ĠdÃŃ": 2581,
      "Ġmara": 2582,
      "Ġunivers": 2583,
      "Ã³ma": 2584,
      "ciendo": 2585,
      "Ġventa": 2586,
      "Ġvisible": 2587,
      "rella": 2588,
      "icos": 2589,
      "Ġfres": 2590,
      "Ġflojo": 2591,
      "Ġmeta": 2592,
      "ĠalgÃºn": 2593,
      "ĠTÃ³ma": 2594,
      "âĢ¦\"": 2595,
      "Ġdesarro": 2596,
      "Ġcontes": 2597,
      "Ġestrella": 2598,
      "traord": 2599,
      "irma": 2600,
      "ĠhabÃŃa": 2601,
      "verti": 2602,
      "Ġjosan": 2603,
      "Ġdiverti": 2604,
      "Ġextraord": 2605,
      "Ġdecisiones": 2606,
      "Ġsalga": 2607,
      "cantado": 2608,
      "Ġtrato": 2609,
      "Ġtradiciones": 2610,
      "Ġapertura": 2611,
      "ĠBuenas": 2612,
      "Ġdesahogar": 2613,
      "ĠrÃŃ": 2614,
      "Ġtengas": 2615,
      "Ġinterro": 2616,
      "ĠJosan": 2617,
      "Ġcorregir": 2618,
      "ĠEntonces": 2619,
      "ĠEncantado": 2620,
      "ĠDespuÃ©s": 2621,
      "ĠFlojo": 2622,
      "Ġespacios": 2623,
      "Ġmodi": 2624,
      "Ġerrores": 2625,
      "eciste": 2626,
      "Ġcolores": 2627,
      "Ġbordes": 2628,
      "Ġesper": 2629,
      "Ġrepresentar": 2630,
      "Ġprofes": 2631,
      "Ġprofundo": 2632,
      "Ġdirecto": 2633,
      "Ġnervioso": 2634,
      "Ġconsecuencias": 2635,
      "Ġintroduce": 2636,
      "ĠdisposiciÃ³n": 2637,
      "Ġpost": 2638,
      "Ġlugar": 2639,
      "Ġexcusa": 2640,
      "Ġligera": 2641,
      "Ġindirecta": 2642,
      "Ġafinamos": 2643,
      "ĠdÃŃmelo": 2644,
      "ĠmaratÃ³n": 2645,
      "Ġuniversal": 2646,
      "ĠTÃ³mate": 2647,
      "AquÃŃ": 2648,
      "Ga": 2649,
      "Hol": 2650,
      "Historias": 2651,
      "ador": 2652,
      "li": 2653,
      "tru": 2654,
      "usa": 2655,
      "uamos": 2656,
      "veg": 2657,
      "erencia": 2658,
      "erramos": 2659,
      "Ġcinco": 2660,
      "endi": 2661,
      "botar": 2662,
      "Ġace": 2663,
      "Ġajo": 2664,
      "lable": 2665,
      "rales": 2666,
      "tacto": 2667,
      "Ġveo": 2668,
      "Ġcontacto": 2669,
      "Ġella": 2670,
      "eco": 2671,
      "Ġhecho": 2672,
      "ĠSua": 2673,
      "icar": 2674,
      "icas": 2675,
      "ĠCerramos": 2676,
      "iere": 2677,
      "ĠfÃ¡": 2678,
      "ĠPasta": 2679,
      "ĠPrim": 2680,
      "Ġrema": 2681,
      "Ġrebotar": 2682,
      "ĠDa": 2683,
      "Ġinigua": 2684,
      "Ġhones": 2685,
      "Ġholi": 2686,
      "Ġprepara": 2687,
      "ĠhablÃ©": 2688,
      "ĠDefin": 2689,
      "Ġpruebo": 2690,
      "tarÃŃa": 2691,
      "Ġokey": 2692,
      "Ġvalo": 2693,
      "Ġnecesites": 2694,
      "Ġmisma": 2695,
      "ĠgustarÃŃa": 2696,
      "ĠPuedes": 2697,
      "ezamos": 2698,
      "ĠapetecÃŃa": 2699,
      "Ġempezamos": 2700,
      "ivencia": 2701,
      "tinuamos": 2702,
      "Ġnaveg": 2703,
      "mÃ¡tica": 2704,
      "Ġestructurar": 2705,
      "ĠcÃ¡lculo": 2706,
      "Ġconvivencia": 2707,
      "Ġlanzo": 2708,
      "ĠtÃ©cnicas": 2709,
      "Ġdemasiados": 2710,
      "Ġcontradic": 2711,
      "Continuamos": 2712,
      "Ġvirales": 2713,
      "Ġhueco": 2714,
      "Ġinstru": 2715,
      "Ġocur": 2716,
      "Ġcomprobar": 2717,
      "Ġofre": 2718,
      "Ġservido": 2719,
      "ĠopiniÃ³n": 2720,
      "Ġarchivo": 2721,
      "Ġcomprendo": 2722,
      "Gatos": 2723,
      "Holi": 2724,
      "Ġaceite": 2725,
      "ĠSuave": 2726,
      "ĠPrimero": 2727,
      "Ġinigualable": 2728,
      "Ġnavegador": 2729,
      ");": 2730,
      "><": 2731,
      "?\"": 2732,
      "El": 2733,
      "Grupo": 2734,
      "Nos": 2735,
      "Res": 2736,
      "dot": 2737,
      "gido": 2738,
      "imal": 2739,
      "mor": 2740,
      "pos": 2741,
      "pas": 2742,
      "pciones": 2743,
      "tarte": 2744,
      "tienes": 2745,
      "uar": 2746,
      "Ġ'": 2747,
      "erente": 2748,
      "arlemos": 2749,
      "ese": 2750,
      "Ġatra": 2751,
      "Ġazar": 2752,
      "Ġadios": 2753,
      "Ġpez": 2754,
      "Ġpido": 2755,
      "Ġpil": 2756,
      "ĠposiciÃ³n": 2757,
      "Ġpese": 2758,
      "Ġdura": 2759,
      "Ġojos": 2760,
      "cido": 2761,
      "Ġquis": 2762,
      "Ġvia": 2763,
      "loj": 2764,
      "Ġconcep": 2765,
      "Ġnotan": 2766,
      "isma": 2767,
      "ĠbÃ¡s": 2768,
      "Ġhtml": 2769,
      "Ġlisto": 2770,
      "Ġfel": 2771,
      "rieta": 2772,
      "aÃ±ol": 2773,
      "Ġmemor": 2774,
      "tivos": 2775,
      "Ġalgun": 2776,
      "Ġrell": 2777,
      "Ġreloj": 2778,
      "ĠDÃŃas": 2779,
      "ĠNervio": 2780,
      "Ġiba": 2781,
      "ĠMisma": 2782,
      "cionar": 2783,
      "tranquilo": 2784,
      "Ġ\"Â¿": 2785,
      "ĠDecido": 2786,
      "Ġpasarte": 2787,
      "taste": 2788,
      "tarlo": 2789,
      "Ġexhala": 2790,
      "Ġcansan": 2791,
      "Ġcancel": 2792,
      "Ġpreguntar": 2793,
      "ĠabriÃ³": 2794,
      "Ġsuavidad": 2795,
      "Ġancla": 2796,
      "Ġanimal": 2797,
      "Â»,": 2798,
      "ĠescuchÃ¡n": 2799,
      "Ġaprieta": 2800,
      "iliencia": 2801,
      "Ġusan": 2802,
      "Ġvaria": 2803,
      "Ġcreativa": 2804,
      "pira": 2805,
      "piramos": 2806,
      "pondo": 2807,
      "ĠCharlemos": 2808,
      "Ġnacen": 2809,
      "ĠRespira": 2810,
      "ĠRespondo": 2811,
      "Ġimportante": 2812,
      "Algo": 2813,
      "uerda": 2814,
      "Ġagenda": 2815,
      "izada": 2816,
      "ead": 2817,
      "istener": 2818,
      "Ġlargos": 2819,
      "Ġacabas": 2820,
      "Ġvaliente": 2821,
      "Ġpublicaciones": 2822,
      "ĠrevisiÃ³n": 2823,
      "Ġadaptar": 2824,
      "Ġcocina": 2825,
      "Ġborde": 2826,
      "ĠespaÃ±ol": 2827,
      "Ġcerrados": 2828,
      "ĠPrecioso": 2829,
      "Ġobserva": 2830,
      "ĠobservaciÃ³n": 2831,
      "Ġsituaciones": 2832,
      "Ġhuh": 2833,
      "Ġjuegos": 2834,
      "ĠInhala": 2835,
      "Ġinterrupciones": 2836,
      "ĠCharlamos": 2837,
      "Cierre": 2838,
      "Ġetiquetarlo": 2839,
      "ĠRecuerda": 2840,
      "Ġdefer": 2841,
      "Ġclave": 2842,
      "Ġcomentar": 2843,
      "ĠnarraciÃ³n": 2844,
      "ĠrespiraciÃ³n": 2845,
      "ĠobstÃ¡culo": 2846,
      "Ġcuestionar": 2847,
      "Ġcontinuar": 2848,
      "Ġabiertas": 2849,
      "Ġrazones": 2850,
      "Ġencajo": 2851,
      "Ġventanas": 2852,
      "ĠrÃŃgido": 2853,
      "Respiramos": 2854,
      "dote": 2855,
      "Ġatrapas": 2856,
      "ĠpillÃ©": 2857,
      "Ġdurante": 2858,
      "Ġquiso": 2859,
      "Ġviaje": 2860,
      "Ġconceptos": 2861,
      "ĠbÃ¡sicos": 2862,
      "Ġfeliz": 2863,
      "Ġalgunas": 2864,
      "Ġrelleno": 2865,
      "ĠNervios": 2866,
      "ĠcancelÃ©": 2867,
      "Ġanimales": 2868,
      "ĠescuchÃ¡ndote": 2869,
      "?Â».": 2870,
      "CT": 2871,
      "EC": 2872,
      "ban": 2873,
      "blico": 2874,
      "cab": 2875,
      "der": 2876,
      "fos": 2877,
      "firma": 2878,
      "iciÃ³n": 2879,
      "itos": 2880,
      "ibl": 2881,
      "ju": 2882,
      "jimos": 2883,
      "nio": 2884,
      "per": 2885,
      "pal": 2886,
      "puedes": 2887,
      "pregunta": 2888,
      "rio": 2889,
      "rÃº": 2890,
      "udo": 2891,
      "util": 2892,
      "yes": 2893,
      "eriencia": 2894,
      "iote": 2895,
      "enaria": 2896,
      "Ġagerbot": 2897,
      "ĠaÃºn": 2898,
      "Ġafirma": 2899,
      "Ġpien": 2900,
      "ĠpÃº": 2901,
      "Ġdir": 2902,
      "Ġsos": 2903,
      "ĠtÃŃ": 2904,
      "quivo": 2905,
      "Ġoyes": 2906,
      "ramien": 2907,
      "taca": 2908,
      "Ġmuestra": 2909,
      "Ġquien": 2910,
      "Ġescri": 2911,
      "Ġesquivo": 2912,
      "ref": 2913,
      "lowe": 2914,
      "allowe": 2915,
      "antes": 2916,
      "anidad": 2917,
      "iges": 2918,
      "Ġbibl": 2919,
      "ĠbrÃº": 2920,
      "ecÃŃ": 2921,
      "Ġhecha": 2922,
      "monio": 2923,
      "ĠentrÃ³": 2924,
      "Ġfor": 2925,
      "Ġfuer": 2926,
      "maÃ±": 2927,
      "tizaciÃ³n": 2928,
      "Ġverifica": 2929,
      "cuÃ¡l": 2930,
      "Ġreve": 2931,
      "Ġreutil": 2932,
      "ĠTu": 2933,
      "ĠTodo": 2934,
      "queza": 2935,
      "ĠDEC": 2936,
      "Ġsel": 2937,
      "ajes": 2938,
      "Ġdestaca": 2939,
      "Ġcontrar": 2940,
      "rarlo": 2941,
      "ĠcuÃ¡l": 2942,
      "Ġcurio": 2943,
      "ĠDebo": 2944,
      "Ġdijimos": 2945,
      "Ġpasa": 2946,
      "Ġcreo": 2947,
      "ĠHallowe": 2948,
      "Ġpatri": 2949,
      "Ġnombrarlo": 2950,
      "tulos": 2951,
      "Ġsalud": 2952,
      "Ġsaludo": 2953,
      "Ġramas": 2954,
      "Ġacti": 2955,
      "ĠElijo": 2956,
      "ĠtamaÃ±": 2957,
      "ulta": 2958,
      "ĠRaro": 2959,
      "ĠexplÃŃ": 2960,
      "Ġexperiencia": 2961,
      "Ġcosta": 2962,
      "Ġ31": 2963,
      "Ġargu": 2964,
      "Ġ25": 2965,
      "ĠOCT": 2966,
      "Ġpresento": 2967,
      "Ġusaste": 2968,
      "Ġtenga": 2969,
      "Ġinternet": 2970,
      "Ġcreativas": 2971,
      "Ġhaya": 2972,
      "Ġllama": 2973,
      "Ġriqueza": 2974,
      "Ġregla": 2975,
      "Ġtoda": 2976,
      "Ġtrabajando": 2977,
      "Ġayudar": 2978,
      "Ġrespetuosa": 2979,
      "Ġcaso": 2980,
      "Ġmilenaria": 2981,
      "ĠcÃ¡lida": 2982,
      "ĠSiguiente": 2983,
      "izable": 2984,
      "Ġdetalles": 2985,
      "Ġirme": 2986,
      "Ġsaberlo": 2987,
      "Ġfinalmente": 2988,
      "ĠðŁĮĻ": 2989,
      "Ġusuario": 2990,
      "Ġrelaciona": 2991,
      "Ġquieta": 2992,
      "tomatizaciÃ³n": 2993,
      "ĠespecÃŃ": 2994,
      "ĠdefiniciÃ³n": 2995,
      "Ġrecomien": 2996,
      "Ġtipograf": 2997,
      "Ġpropio": 2998,
      "ĠpÃ¡rrafos": 2999,
      "Ġformularios": 3000,
      "Ġusaban": 3001,
      "Ġclics": 3002,
      "Cierras": 3003,
      "Ġenlaces": 3004,
      "Ġsaludaba": 3005,
      "ĠautomatizaciÃ³n": 3006,
      "Ġherramien": 3007,
      "ĠpequeÃ±os": 3008,
      "Ġâĺķ": 3009,
      "Ġalternativas": 3010,
      "Ġformulo": 3011,
      "Ġsimplemente": 3012,
      "Ġconfunde": 3013,
      "ĠexplicarÃ©": 3014,
      "Ġprincipal": 3015,
      "Ġpresentas": 3016,
      "ĠÃºnica": 3017,
      "ĠllevÃ³": 3018,
      "Ġvencer": 3019,
      "Ġhumanidad": 3020,
      "ĠNavidad": 3021,
      "Ġsegundos": 3022,
      "Ġdivertido": 3023,
      "Ġextraordinaria": 3024,
      "Ġocurre": 3025,
      "jula": 3026,
      "ioteca": 3027,
      "ĠpÃºblico": 3028,
      "ĠtÃŃtulos": 3029,
      "Ġbiblioteca": 3030,
      "ĠbrÃºjula": 3031,
      "Ġreutilizable": 3032,
      "Ġcontraria": 3033,
      "Ġcuriosa": 3034,
      "ĠHalloween": 3035,
      "Ġpatrimonio": 3036,
      "Ġrelacionada": 3037,
      "ĠtipografÃŃas": 3038,
      "></": 3039,
      "Tienes": 3040,
      "Ya": 3041,
      "cta": 3042,
      "cera": 3043,
      "fada": 3044,
      "gon": 3045,
      "gati": 3046,
      "lvo": 3047,
      "menta": 3048,
      "vÃŃa": 3049,
      "zcla": 3050,
      "ĠÃģnimo": 3051,
      "ĠYa": 3052,
      "Ģï¸ı": 3053,
      "eros": 3054,
      "aron": 3055,
      "arse": 3056,
      "Ġcen": 3057,
      "esiÃ³n": 3058,
      "ioso": 3059,
      "boton": 3060,
      "Ġagu": 3061,
      "Ġdientes": 3062,
      "ĠsesiÃ³n": 3063,
      "ĠoraciÃ³n": 3064,
      "ÃŃo": 3065,
      "rala": 3066,
      "Ġmien": 3067,
      "Ã³rala": 3068,
      "Ġvide": 3069,
      "lorar": 3070,
      "antado": 3071,
      "aneciste": 3072,
      "Ġelse": 3073,
      "Ġelige": 3074,
      "iendo": 3075,
      "Ġhas": 3076,
      "Ġhech": 3077,
      "mociÃ³n": 3078,
      "Ġgrupo": 3079,
      "uentras": 3080,
      "Ġenten": 3081,
      "Ġenfada": 3082,
      "ĠCÃ¡lido": 3083,
      "Ġfluye": 3084,
      "Ġmezcla": 3085,
      "tidad": 3086,
      "ĠEmociÃ³n": 3087,
      "ĠreÃºn": 3088,
      "Ġcae": 3089,
      "ĠTÃº": 3090,
      "Ġind": 3091,
      "Ġamaneciste": 3092,
      "Ġif": 3093,
      "ezca": 3094,
      "Ġtuve": 3095,
      "Ġcontras": 3096,
      "Ãºdame": 3097,
      "ĠEstar": 3098,
      "Ġpreci": 3099,
      "Ġcumple": 3100,
      "tesis": 3101,
      "ctar": 3102,
      "ĠDebe": 3103,
      "Ġcorrige": 3104,
      "Ġpolvo": 3105,
      "ĠpasÃ³": 3106,
      "Ġcrea": 3107,
      "Ġexcelente": 3108,
      "Ġquiere": 3109,
      "Ġpausa": 3110,
      "Ġserte": 3111,
      "Ġdecides": 3112,
      "Ġverdadera": 3113,
      "ĠsalÃºdame": 3114,
      "ĠmejÃ³rala": 3115,
      "Ġmejorar": 3116,
      "minas": 3117,
      "Â»?": 3118,
      "Ġexplorar": 3119,
      "Ġtercera": 3120,
      "Ġcontento": 3121,
      "ĠBueno": 3122,
      "ĠIdenti": 3123,
      "Ġfrases": 3124,
      "Ġmuy": 3125,
      "Ġrendi": 3126,
      "Ġmalas": 3127,
      "ĠcorrecciÃ³n": 3128,
      "Ġtristeza": 3129,
      "Ġtrabajar": 3130,
      "ĠsegÃºn": 3131,
      "Ġnatural": 3132,
      "Ġconsid": 3133,
      "AlegrÃŃa": 3134,
      "Ġagotan": 3135,
      "Ġaclare": 3136,
      "Ġdistintas": 3137,
      "Ġbuscar": 3138,
      "Ġevento": 3139,
      "Ġmalos": 3140,
      "Ġguardas": 3141,
      "ĠtÃ©cnico": 3142,
      "ĠdiscutÃŃ": 3143,
      "Ġexamino": 3144,
      "Ġexaminas": 3145,
      "Ġpreferimos": 3146,
      "Ġrevisas": 3147,
      "Ġconfiar": 3148,
      "ĠencontrÃ³": 3149,
      "Ġprint": 3150,
      "Ġnervios": 3151,
      "ĠseÃ±alar": 3152,
      "Ġauto": 3153,
      "Ġherido": 3154,
      "ĠpequeÃ±o": 3155,
      "ĠâĺĢï¸ı": 3156,
      "Ġregionales": 3157,
      "ĠĠĠ": 3158,
      "Ġpermite": 3159,
      "Ġsupues": 3160,
      "ĠHaz": 3161,
      "Ġcompartir": 3162,
      "Ġapariencia": 3163,
      "Ġencontrarte": 3164,
      "Ġdeclara": 3165,
      "ĠAPIs": 3166,
      "Ġfrescas": 3167,
      "Ġinterrogati": 3168,
      "Ġprofesor": 3169,
      "Ġrematada": 3170,
      "ĠDame": 3171,
      "Ġcomprobarlo": 3172,
      "gonista": 3173,
      "Ġaguantado": 3174,
      "Ġmientras": 3175,
      "Ġhechos": 3176,
      "Ġenfadado": 3177,
      "ĠreÃºne": 3178,
      "Ġrendimiento": 3179,
      "Ġconsidero": 3180,
      "10": 3181,
      "cl": 3182,
      "cciones": 3183,
      "igero": 3184,
      "mÃºsica": 3185,
      "paro": 3186,
      "rÃ©": 3187,
      "sito": 3188,
      "var": 3189,
      "ven": 3190,
      "ype": 3191,
      "Ġ(": 3192,
      "eres": 3193,
      "arios": 3194,
      "Ġcopy": 3195,
      "doct": 3196,
      "Ã³sito": 3197,
      "Ġconcl": 3198,
      "ierto": 3199,
      "Ġfrec": 3200,
      "ĠPres": 3201,
      "Ġdesde": 3202,
      "ĠLigero": 3203,
      "Ġdecidir": 3204,
      "Ġescuchando": 3205,
      "Ġplatos": 3206,
      "Ġcontarme": 3207,
      "Ã¡ndo": 3208,
      "Ġbloqueos": 3209,
      "Ġconst": 3210,
      "Ġconser": 3211,
      "ĠempezÃ³": 3212,
      "Ġconvierto": 3213,
      "Ġmensaje": 3214,
      "Ġrelaciones": 3215,
      "Ġexplicarlos": 3216,
      "Ġjuicio": 3217,
      "ĠpropÃ³sito": 3218,
      "Ġ<!": 3219,
      "Ġconsecuencia": 3220,
      "ĠfÃ¡cil": 3221,
      "Ġinstrucciones": 3222,
      "Ġcopys": 3223,
      "doctype": 3224,
      "ĠconclusiÃ³n": 3225,
      "Ġfrecuente": 3226,
      "',": 3227,
      "Neces": 3228,
      "Sal": 3229,
      "Sel": 3230,
      "Todo": 3231,
      "butos": 3232,
      "cno": 3233,
      "ccionar": 3234,
      "dar": 3235,
      "herente": 3236,
      "iesta": 3237,
      "jal": 3238,
      "lver": 3239,
      "lecciÃ³n": 3240,
      "mico": 3241,
      "mil": 3242,
      "mero": 3243,
      "nos": 3244,
      "ocu": 3245,
      "oco": 3246,
      "pes": 3247,
      "pia": 3248,
      "pera": 3249,
      "pech": 3250,
      "ser": 3251,
      "sos": 3252,
      "sic": 3253,
      "script": 3254,
      "tic": 3255,
      "ulo": 3256,
      "val": 3257,
      "xic": 3258,
      "ySel": 3259,
      "¤ï¸ı": 3260,
      "Ġ#": 3261,
      "Ġ-": 3262,
      "Ġ0": 3263,
      "Ġ}": 3264,
      "Ġhora": 3265,
      "ĳį": 3266,
      "Ŀ¤ï¸ı": 3267,
      "erySel": 3268,
      "Ġcar": 3269,
      "Ġpsic": 3270,
      "Ġdin": 3271,
      "Ġsan": 3272,
      "ostrar": 3273,
      "Ġtera": 3274,
      "querySel": 3275,
      "unca": 3276,
      "Ġcoherente": 3277,
      "ĠcolecciÃ³n": 3278,
      "lante": 3279,
      "Ġdevo": 3280,
      "ĠdejÃ³": 3281,
      "Ġmostrar": 3282,
      "dona": 3283,
      "Ã³logo": 3284,
      "ciles": 3285,
      "Ġesto": 3286,
      "Ġestado": 3287,
      "Ġespres": 3288,
      "Ġescen": 3289,
      "Ã©r": 3290,
      "Ġcontaste": 3291,
      "Ã¡mico": 3292,
      "ĠnÃº": 3293,
      "Ġnunca": 3294,
      "orte": 3295,
      "Ġeleg": 3296,
      "Ġeliges": 3297,
      "ĠtelÃ©": 3298,
      "Ġtecno": 3299,
      "damento": 3300,
      "Ġbro": 3301,
      "ientan": 3302,
      "ecua": 3303,
      "ĠSu": 3304,
      "iculta": 3305,
      "Ġgri": 3306,
      "Ġgru": 3307,
      "Ġgenial": 3308,
      "decir": 3309,
      "delante": 3310,
      "Ġense": 3311,
      "Ġfil": 3312,
      "Ġfaro": 3313,
      "ĠficciÃ³n": 3314,
      "Ġfiesta": 3315,
      "Ġfoco": 3316,
      "rir": 3317,
      "rome": 3318,
      "Ġmexic": 3319,
      "tiÃ³": 3320,
      "titu": 3321,
      "ĠProme": 3322,
      "ĠðŁĳį": 3323,
      "Ġrec": 3324,
      "ĠreÃŃr": 3325,
      "Ġcapitana": 3326,
      "ĠTienes": 3327,
      "ĠAdelante": 3328,
      "Ġrestr": 3329,
      "Ġresiliencia": 3330,
      "Ġines": 3331,
      "Ġinver": 3332,
      "Ġinsul": 3333,
      "ĠimÃ¡": 3334,
      "ezo": 3335,
      "Ġtutori": 3336,
      "Ġdesp": 3337,
      "Ġparamos": 3338,
      "Ġparagu": 3339,
      "cion": 3340,
      "Ġestud": 3341,
      "ĠGener": 3342,
      "ĠLos": 3343,
      "Ġpreocu": 3344,
      "Ġproces": 3345,
      "Ġprodu": 3346,
      "terpre": 3347,
      "oya": 3348,
      "Ġcrecer": 3349,
      "ĠPerdona": 3350,
      "pado": 3351,
      "Ġcambien": 3352,
      "Ġcerrar": 3353,
      "Ġcalidad": 3354,
      "ĠpreguntÃ³": 3355,
      "gulos": 3356,
      "Ġanterio": 3357,
      "cribir": 3358,
      "ĠrespondiÃ³": 3359,
      "ruta": 3360,
      "ment": 3361,
      "famil": 3362,
      "Ġorientan": 3363,
      "Ġescriben": 3364,
      "Ġcomple": 3365,
      "Entendido": 3366,
      "ender": 3367,
      "Ġapun": 3368,
      "Ġapoya": 3369,
      "ĠOjal": 3370,
      "Ġfallar": 3371,
      "Ġempi": 3372,
      "Ġdice": 3373,
      "ĠpreferÃŃa": 3374,
      "Ġprefiero": 3375,
      "ĠrÃŃa": 3376,
      "ĠtensiÃ³n": 3377,
      "ficaciÃ³n": 3378,
      "Ġsirva": 3379,
      "pidos": 3380,
      "ĠâĿ¤ï¸ı": 3381,
      "ctividad": 3382,
      "Ġrival": 3383,
      "ĠDescribe": 3384,
      "Ġfundamento": 3385,
      "Ġmucha": 3386,
      "ĠÃ¡ngulos": 3387,
      "ĠEmpiezo": 3388,
      "Ġbusca": 3389,
      "Ġreaccionar": 3390,
      "Ġevita": 3391,
      "Ġlleves": 3392,
      "ĠTampoco": 3393,
      "Ġobjetos": 3394,
      "buto": 3395,
      "Ġdemasiado": 3396,
      "Ġborrar": 3397,
      "Ġfont": 3398,
      "ĠrepetÃŃ": 3399,
      "Ġcontrad": 3400,
      "Ġcontradecir": 3401,
      "Ġexagero": 3402,
      "ĠoperaciÃ³n": 3403,
      "Ġpreferencia": 3404,
      "Excelente": 3405,
      "Ġmargen": 3406,
      "Ġanaliza": 3407,
      "Ġsentirse": 3408,
      "Ġhazme": 3409,
      "ĠrÃ¡pidos": 3410,
      "Ġdocument": 3411,
      "Ġrealiza": 3412,
      "ĠMantengo": 3413,
      "Ġlimpios": 3414,
      "Ġdificulta": 3415,
      "Ġclich": 3416,
      "genes": 3417,
      "ĠconsultÃ³": 3418,
      "Ġinclu": 3419,
      "Ġincluye": 3420,
      "Ġcotidiana": 3421,
      "Ġcotidiano": 3422,
      "Ġetiqueta": 3423,
      "Ġidentifica": 3424,
      "Ġconfundir": 3425,
      "Ġestudiantes": 3426,
      "Ġcomparti": 3427,
      "Ġposible": 3428,
      "222": 3429,
      "Ġatributos": 3430,
      "Ġatributo": 3431,
      "ĠhÃ¡bitos": 3432,
      "ĠEvita": 3433,
      "Ġadecua": 3434,
      "ĠmodificaciÃ³n": 3435,
      "ĠDefine": 3436,
      "Ġmemorizada": 3437,
      "Ġvariable": 3438,
      "Ġpienso": 3439,
      "Ġsospech": 3440,
      "Ġescrito": 3441,
      "Ġllamada": 3442,
      "ĠtodavÃŃa": 3443,
      "ĠespecÃŃfica": 3444,
      "Ġvideo": 3445,
      "Necesitas": 3446,
      "Saludos": 3447,
      "serif": 3448,
      "ĠpsicÃ³logo": 3449,
      "ĠdinÃ¡mico": 3450,
      "Ġsans": 3451,
      "Ġterapia": 3452,
      "querySelector": 3453,
      "Ġdevolver": 3454,
      "Ġespresso": 3455,
      "Ġescenario": 3456,
      "ĠnÃºmero": 3457,
      "Ġelegir": 3458,
      "ĠtelÃ©f": 3459,
      "Ġbroma": 3460,
      "Ġgrupos": 3461,
      "ĠenseÃ±a": 3462,
      "Ġmexicana": 3463,
      "ĠrestricciÃ³n": 3464,
      "ĠinversiÃ³n": 3465,
      "Ġinsultos": 3466,
      "ĠimÃ¡genes": 3467,
      "Ġtutorial": 3468,
      "Ġparaguas": 3469,
      "Ġestudio": 3470,
      "ĠGenero": 3471,
      "Ġpreocupes": 3472,
      "Ġanterior": 3473,
      "family": 3474,
      "ĠOjalÃ¡": 3475,
      "Ġcontradecirte": 3476,
      "Ġdificultad": 3477,
      "\");": 3478,
      ">.": 3479,
      "Bus": 3480,
      "Hay": 3481,
      "Para": 3482,
      "bos": 3483,
      "cos": 3484,
      "cend": 3485,
      "dÃŃa": 3486,
      "giere": 3487,
      "ima": 3488,
      "luen": 3489,
      "lido": 3490,
      "ltar": 3491,
      "olv": 3492,
      "tario": 3493,
      "Ġ5": 3494,
      "Ġru": 3495,
      "ari": 3496,
      "Ġciencia": 3497,
      "enla": 3498,
      "entos": 3499,
      "Ġpul": 3500,
      "Ġpuntos": 3501,
      "Ġdar": 3502,
      "ĠdarÃ©": 3503,
      "Ġsierra": 3504,
      "osito": 3505,
      "Ġora": 3506,
      "ÃŃm": 3507,
      "taciÃ³n": 3508,
      "Ġecos": 3509,
      "Ġmesa": 3510,
      "ĠmÃŃn": 3511,
      "ĠmÃ³d": 3512,
      "Ġcondes": 3513,
      "igura": 3514,
      "isten": 3515,
      "istin": 3516,
      "ĠtemÃ¡tica": 3517,
      "Ġbon": 3518,
      "Ġbur": 3519,
      "Ġhref": 3520,
      "delo": 3521,
      "Ġlistener": 3522,
      "ĠlÃŃm": 3523,
      "mbo": 3524,
      "magen": 3525,
      "Ġnove": 3526,
      "Ġverbos": 3527,
      "Ġredes": 3528,
      "ĠTer": 3529,
      "Ġsuje": 3530,
      "Ġsugiere": 3531,
      "ĠDale": 3532,
      "ĠDuele": 3533,
      "ĠDistin": 3534,
      "Ġresolv": 3535,
      "Ġselv": 3536,
      "ĠseÃ±a": 3537,
      "vel": 3538,
      "Ġimagen": 3539,
      "istemas": 3540,
      "Ġdeseo": 3541,
      "Ġdesenla": 3542,
      "usto": 3543,
      "tral": 3544,
      "ĠLe": 3545,
      "Ġcuida": 3546,
      "Ġpropi": 3547,
      "ables": 3548,
      "Ġpersonajes": 3549,
      "tarÃ©": 3550,
      "Ġexisten": 3551,
      "Ġpueden": 3552,
      "ĠVa": 3553,
      "ĠCada": 3554,
      "ĠCamb": 3555,
      "Ġmejo": 3556,
      "Ġmejores": 3557,
      "Ġsigamos": 3558,
      "ĠUso": 3559,
      "cha": 3560,
      "Ġtrae": 3561,
      "Ġtran": 3562,
      "Ġrespondas": 3563,
      "Ã©ntesis": 3564,
      "Ġapr": 3565,
      "Ġaplica": 3566,
      "Ġnivel": 3567,
      "Ġpresenta": 3568,
      "tilos": 3569,
      "came": 3570,
      "Ġusas": 3571,
      "ĠusarÃ©": 3572,
      "Ġtenemos": 3573,
      "trÃ³n": 3574,
      "Ġintera": 3575,
      "Ġrespuestas": 3576,
      "diÃ³s": 3577,
      "ĠparÃ©ntesis": 3578,
      "Ġsirvio": 3579,
      "Ġvarias": 3580,
      "Ġgenero": 3581,
      "Ġencuentras": 3582,
      "onozco": 3583,
      "Ġclaramente": 3584,
      "Ġignoren": 3585,
      "Ġignoraron": 3586,
      "Ġtomar": 3587,
      "Ġayudando": 3588,
      "Ġchao": 3589,
      "Ġpracticar": 3590,
      "Ġfunciones": 3591,
      "Ġsonar": 3592,
      "mÃ¡tico": 3593,
      "Ġquitar": 3594,
      "Ġinvento": 3595,
      "Ġestructuro": 3596,
      "Ġmomento": 3597,
      "Ġmodelo": 3598,
      "Ġnueva": 3599,
      "Ġfingir": 3600,
      "Ġbreves": 3601,
      "Ġinferencia": 3602,
      "Ġinfluen": 3603,
      "ĠSigamos": 3604,
      "Ġbuscab": 3605,
      "Ġevitas": 3606,
      "Ġeventos": 3607,
      "Ġdistraer": 3608,
      "Ġvalide": 3609,
      "ĠobjeciÃ³n": 3610,
      "Ġculinaria": 3611,
      "Ġfacil": 3612,
      "Ġsencillo": 3613,
      "Ġairear": 3614,
      "Ġentender": 3615,
      "Ġpendientes": 3616,
      "Ġsencillas": 3617,
      "ĠCompaÃ±eros": 3618,
      "Ġgracioso": 3619,
      "ificar": 3620,
      "Ġinspi": 3621,
      "Ġpropia": 3622,
      "ĠInten": 3623,
      "Ġdirecta": 3624,
      "ĠÃ©l": 3625,
      "ĠdifÃŃ": 3626,
      "Ġocultar": 3627,
      "Ġconsultar": 3628,
      "Ġreconocer": 3629,
      "Ġenlazo": 3630,
      "Ġansioso": 3631,
      "Ġalternativa": 3632,
      "Ġintroducir": 3633,
      "ĠexpresiÃ³n": 3634,
      "Ġpermita": 3635,
      "Ġidentifico": 3636,
      "ĠReconozco": 3637,
      "Ġestudiar": 3638,
      "ĠinterpretaciÃ³n": 3639,
      "Ġprincipi": 3640,
      "Ġdeclarar": 3641,
      "ĠhÃ¡bito": 3642,
      "Ġcontestas": 3643,
      "Ġcontestar": 3644,
      "Ġesperar": 3645,
      "Ġhonestidad": 3646,
      "ĠpreparaciÃ³n": 3647,
      "Ġvalor": 3648,
      "Ġofrezco": 3649,
      "ĠafirmaciÃ³n": 3650,
      "ĠdirÃ©": 3651,
      "Ġverificable": 3652,
      "Ġrevela": 3653,
      "Ġselector": 3654,
      "ĠtamaÃ±os": 3655,
      "ĠexplÃŃcame": 3656,
      "Ġargumenta": 3657,
      "Ġrecomiendo": 3658,
      "Ġherramienta": 3659,
      "Ġentendi": 3660,
      "Ġsupuestos": 3661,
      "ĠPresento": 3662,
      "cendiente": 3663,
      "Ġrumbo": 3664,
      "Ġpulir": 3665,
      "ositor": 3666,
      "Ġoraciones": 3667,
      "Ġecosistemas": 3668,
      "Ġcondescendiente": 3669,
      "Ġbonito": 3670,
      "Ġsujeto": 3671,
      "ĠDistingo": 3672,
      "Ġselva": 3673,
      "Ġdesenlace": 3674,
      "Ġcuidado": 3675,
      "Ġpropiedad": 3676,
      "Ġargumentada": 3677,
      "\"]": 3678,
      ".</": 3679,
      "?Â»": 3680,
      "Lun": 3681,
      "Mi": 3682,
      "ao": 3683,
      "bol": 3684,
      "cana": 3685,
      "ficar": 3686,
      "html": 3687,
      "head": 3688,
      "iu": 3689,
      "jas": 3690,
      "lÃ¡": 3691,
      "liente": 3692,
      "mes": 3693,
      "mnas": 3694,
      "ok": 3695,
      "pro": 3696,
      "plico": 3697,
      "sas": 3698,
      "sor": 3699,
      "tle": 3700,
      "Ã¼": 3701,
      "ĠÃ¡r": 3702,
      "aremos": 3703,
      "Ġciu": 3704,
      "Ġcliente": 3705,
      "esto": 3706,
      "Ġcomb": 3707,
      "lada": 3708,
      "Ġdejo": 3709,
      "ĠediciÃ³n": 3710,
      "Ġmas": 3711,
      "ina": 3712,
      "alÃº": 3713,
      "dactar": 3714,
      "Ġhead": 3715,
      "ĠSon": 3716,
      "onto": 3717,
      "Ġlista": 3718,
      "title": 3719,
      "Ġhago": 3720,
      "Ġrepita": 3721,
      "Ġredactar": 3722,
      "ĠcaÃŃs": 3723,
      "ĠperdiÃ³": 3724,
      "Ġindico": 3725,
      "Ġsepar": 3726,
      "Ġseparo": 3727,
      "ezaremos": 3728,
      "Ġdescu": 3729,
      "ĠMuestra": 3730,
      "Ãºs": 3731,
      "nada": 3732,
      "ĠLas": 3733,
      "ĠLle": 3734,
      "Ġdias": 3735,
      "Ġsensor": 3736,
      "aba": 3737,
      "Ġprota": 3738,
      "Ġpronto": 3739,
      "ĠHay": 3740,
      "Ġcercana": 3741,
      "Ġvaca": 3742,
      "Ġsaludos": 3743,
      "Ġacces": 3744,
      "Ġando": 3745,
      "entado": 3746,
      "Ġresponsa": 3747,
      "Ġplacer": 3748,
      "ĠpresiÃ³n": 3749,
      "Chao": 3750,
      "Ġprefiere": 3751,
      "Ġsegui": 3752,
      "Ġmane": 3753,
      "Ġpreguntan": 3754,
      "Ġparezca": 3755,
      "Ġcorrecta": 3756,
      "Ġgenerar": 3757,
      "ĠEmpezaremos": 3758,
      "body": 3759,
      "jetivos": 3760,
      "Ġdebes": 3761,
      "Ġevid": 3762,
      "presa": 3763,
      "ĠExplico": 3764,
      "ĠTambiÃ©n": 3765,
      "Ġutil": 3766,
      "Ġsorpresa": 3767,
      "ĠaprendÃŃ": 3768,
      "Ġtanto": 3769,
      "Ġobservar": 3770,
      "Ġgimnas": 3771,
      "Ġ[\"": 3772,
      "Ġdiferencia": 3773,
      "ĠcomprobarÃ©": 3774,
      "quiÃ©n": 3775,
      "parece": 3776,
      "Ġentiendo": 3777,
      "Ġentiende": 3778,
      "Ġposibilidad": 3779,
      "Ġpresentarte": 3780,
      "ĠIgualmente": 3781,
      "Ġcuantomes": 3782,
      "Ġadjetivos": 3783,
      "Ġmodificar": 3784,
      "Ġhonesto": 3785,
      "Ġvalores": 3786,
      "Ġofrecer": 3787,
      "Ġservidor": 3788,
      "Ġindentado": 3789,
      "Ġcontraste": 3790,
      "ĠprecisiÃ³n": 3791,
      "ĠcreaciÃ³n": 3792,
      "ĠIdentifico": 3793,
      "Luna": 3794,
      "ĠÃ¡rbol": 3795,
      "Ġciudad": 3796,
      "Ġrepitas": 3797,
      "ĠcaÃŃste": 3798,
      "Ġsensorial": 3799,
      "Ġprotagonista": 3800,
      "Ġvacaciones": 3801,
      "Ġevidencia": 3802,
      "Ġgimnasio": 3803,
      "Ese": 3804,
      "Even": 3805,
      "Listener": 3806,
      "clic": 3807,
      "dEven": 3808,
      "iÃ©r": 3809,
      "tener": 3810,
      "tton": 3811,
      "tListener": 3812,
      "});": 3813,
      "Ġboton": 3814,
      "Ġaque": 3815,
      "Ġdue": 3816,
      "Ġtre": 3817,
      "cible": 3818,
      "telo": 3819,
      "inta": 3820,
      "Ġnorte": 3821,
      "daciÃ³n": 3822,
      "Ġlado": 3823,
      "Ġcontener": 3824,
      "irmar": 3825,
      "ĠgustÃ³": 3826,
      "CuÃ¡ndo": 3827,
      "mendaciÃ³n": 3828,
      "Ġhacemos": 3829,
      "Ġexpecta": 3830,
      "ĠterminÃ³": 3831,
      "Ġmanera": 3832,
      "Ġseguirla": 3833,
      "Ġconfirmar": 3834,
      "ĠconviÃ©r": 3835,
      "Ġ=>": 3836,
      "button": 3837,
      "ĠrecomendaciÃ³n": 3838,
      "Ġconsejo": 3839,
      "Ġdirectas": 3840,
      "addEven": 3841,
      "Ġformular": 3842,
      "Ġgrandes": 3843,
      "Ġcontradice": 3844,
      "Ġ()": 3845,
      "Ġevitaba": 3846,
      "click": 3847,
      "Ġaquello": 3848,
      "ĠdueÃ±a": 3849,
      "Ġtreinta": 3850,
      "Ġexpectativa": 3851,
      "ĠconviÃ©rtelo": 3852,
      "addEventListener": 3853,
      "'.": 3854,
      "AE": 3855,
      "Avan": 3856,
      "Bye": 3857,
      "ER": 3858,
      "Eres": 3859,
      "Listo": 3860,
      "Mu": 3861,
      "Mej": 3862,
      "ProbÃ©": 3863,
      "Pref": 3864,
      "Rea": 3865,
      "Uno": 3866,
      "Vamos": 3867,
      "],": 3868,
      "]Â».": 3869,
      "]Â»,": 3870,
      "active": 3871,
      "acciÃ³n": 3872,
      "auso": 3873,
      "ben": 3874,
      "bido": 3875,
      "bana": 3876,
      "brir": 3877,
      "cot": 3878,
      "cando": 3879,
      "claro": 3880,
      "dica": 3881,
      "diendo": 3882,
      "ef": 3883,
      "ex": 3884,
      "eÃ±a": 3885,
      "edu": 3886,
      "fecciÃ³n": 3887,
      "formaciÃ³n": 3888,
      "frimiento": 3889,
      "fÃŃo": 3890,
      "fruta": 3891,
      "fender": 3892,
      "gÃ³": 3893,
      "glo": 3894,
      "gaÃ±": 3895,
      "gue": 3896,
      "gico": 3897,
      "ici": 3898,
      "itar": 3899,
      "iÃ©n": 3900,
      "izo": 3901,
      "icial": 3902,
      "js": 3903,
      "jor": 3904,
      "ks": 3905,
      "lÃ³": 3906,
      "lencia": 3907,
      "luso": 3908,
      "mu": 3909,
      "mÃ³": 3910,
      "mÃ©": 3911,
      "man": 3912,
      "marte": 3913,
      "mesa": 3914,
      "ner": 3915,
      "nan": 3916,
      "nda": 3917,
      "neces": 3918,
      "ndar": 3919,
      "omos": 3920,
      "pil": 3921,
      "plica": 3922,
      "penda": 3923,
      "rc": 3924,
      "ren": 3925,
      "rario": 3926,
      "rÃ¡": 3927,
      "rico": 3928,
      "rno": 3929,
      "rmino": 3930,
      "rsos": 3931,
      "rmu": 3932,
      "smos": 3933,
      "siste": 3934,
      "siz": 3935,
      "sformaciÃ³n": 3936,
      "tÃŃa": 3937,
      "tico": 3938,
      "ticio": 3939,
      "ular": 3940,
      "uva": 3941,
      "uiÃ³": 3942,
      "uegos": 3943,
      "utral": 3944,
      "vÃŃ": 3945,
      "vÃ³": 3946,
      "viÃ³n": 3947,
      "viene": 3948,
      "visible": 3949,
      "wok": 3950,
      "xima": 3951,
      "yas": 3952,
      "yan": 3953,
      "Ġwe": 3954,
      "Ġwok": 3955,
      "eren": 3956,
      "erdas": 3957,
      "erga": 3958,
      "ercar": 3959,
      "arÃŃa": 3960,
      "Ġcien": 3961,
      "Ġcara": 3962,
      "Ġcita": 3963,
      "ĠclÃ¡sico": 3964,
      "escribir": 3965,
      "iodi": 3966,
      "oto": 3967,
      "oten": 3968,
      "otro": 3969,
      "otivo": 3970,
      "engo": 3971,
      "entir": 3972,
      "Ġaho": 3973,
      "Ġago": 3974,
      "Ġanta": 3975,
      "ĠaÃ±a": 3976,
      "Ġaum": 3977,
      "Ġadu": 3978,
      "Ġadic": 3979,
      "ĠaviÃ³n": 3980,
      "Ġpier": 3981,
      "Ġpida": 3982,
      "Ġpoten": 3983,
      "Ġdas": 3984,
      "ĠdaÃ±": 3985,
      "Ġdarme": 3986,
      "Ġdur": 3987,
      "Ġdudos": 3988,
      "Ġdaba": 3989,
      "ĠsÃ¡": 3990,
      "Ġsrc": 3991,
      "ostada": 3992,
      "Ġtras": 3993,
      "Ġtostada": 3994,
      "ques": 3995,
      "quier": 3996,
      "quite": 3997,
      "untar": 3998,
      "Ġcoma": 3999,
      "Ġcopil": 4000,
      "Ġofici": 4001,
      "Ġonda": 4002,
      "late": 4003,
      "laciÃ³n": 4004,
      "laza": 4005,
      "ran": 4006,
      "rada": 4007,
      "rativa": 4008,
      "talla": 4009,
      "tampoco": 4010,
      "Ġemb": 4011,
      "Ġedu": 4012,
      "Ġmita": 4013,
      "Ġmale": 4014,
      "ĠmÃºs": 4015,
      "Ġmotivo": 4016,
      "Ġunidad": 4017,
      "todo": 4018,
      "todas": 4019,
      "tograf": 4020,
      "asig": 4021,
      "Ã³rmu": 4022,
      "Ã³xima": 4023,
      "cita": 4024,
      "cina": 4025,
      "cibo": 4026,
      "cimien": 4027,
      "Ġquita": 4028,
      "Ġesco": 4029,
      "Ġestamos": 4030,
      "Ġestilos": 4031,
      "Ġvig": 4032,
      "ĠvÃ¡l": 4033,
      "Ġvul": 4034,
      "reÃŃr": 4035,
      "reglo": 4036,
      "tema": 4037,
      "lor": 4038,
      "logÃŃa": 4039,
      "lovÃŃ": 4040,
      "Ġconso": 4041,
      "Ġconex": 4042,
      "interpre": 4043,
      "inari": 4044,
      "alidad": 4045,
      "anas": 4046,
      "ancho": 4047,
      "Ġneg": 4048,
      "Ġnoti": 4049,
      "Ġning": 4050,
      "orda": 4051,
      "orrido": 4052,
      "orrige": 4053,
      "ornada": 4054,
      "iga": 4055,
      "igen": 4056,
      "igor": 4057,
      "igir": 4058,
      "ispa": 4059,
      "istir": 4060,
      "istÃ³": 4061,
      "Ġtecn": 4062,
      "Ġbye": 4063,
      "Ġbiodi": 4064,
      "Ġquepa": 4065,
      "Ġquemarte": 4066,
      "ecÃŃa": 4067,
      "ecable": 4068,
      "eccionar": 4069,
      "Ġhistorias": 4070,
      "ĠharÃŃa": 4071,
      "ĠhistÃ³": 4072,
      "ĠSus": 4073,
      "ĠSomos": 4074,
      "icticio": 4075,
      "Ġchef": 4076,
      "Ġchispa": 4077,
      "Ã±o": 4078,
      "resa": 4079,
      "resultado": 4080,
      "ĠgrÃ¡": 4081,
      "onos": 4082,
      "dea": 4083,
      "dejar": 4084,
      "Ġlector": 4085,
      "ĠllovÃŃ": 4086,
      "Ġenmar": 4087,
      "ĠengaÃ±": 4088,
      "ĠCri": 4089,
      "ĠColo": 4090,
      "ĠCorrige": 4091,
      "ieron": 4092,
      "Ġsolu": 4093,
      "Ġsopa": 4094,
      "mbos": 4095,
      "mbolo": 4096,
      "Ġflu": 4097,
      "Ġfruta": 4098,
      "ĠfÃ³rmu": 4099,
      "Ġficticio": 4100,
      "main": 4101,
      "Ġmedi": 4102,
      "Ġnodos": 4103,
      "tira": 4104,
      "tida": 4105,
      "tiro": 4106,
      "ticiÃ³n": 4107,
      "tiempo": 4108,
      "Ġvernos": 4109,
      "Ġverificar": 4110,
      "ĠPide": 4111,
      "ĠPoner": 4112,
      "ĠPauso": 4113,
      "cura": 4114,
      "Ġalt": 4115,
      "Ġalta": 4116,
      "Ġalguna": 4117,
      "Ġhacia": 4118,
      "Ġhacen": 4119,
      "Ġred": 4120,
      "Ġretra": 4121,
      "Ġrecal": 4122,
      "Ġrebana": 4123,
      "Ġreescribir": 4124,
      "Ġreasig": 4125,
      "Ġreinterpre": 4126,
      "Ġretiro": 4127,
      "larÃ©": 4128,
      "larme": 4129,
      "ĠTengo": 4130,
      "Ġlomo": 4131,
      "Ġsuel": 4132,
      "Ġsufrimiento": 4133,
      "ĠAbre": 4134,
      "ĠAcciÃ³n": 4135,
      "ĠAdios": 4136,
      "ĠAdiÃ³s": 4137,
      "ĠAclaro": 4138,
      "ĠAplica": 4139,
      "ĠAmbos": 4140,
      "Ġperro": 4141,
      "ĠperfecciÃ³n": 4142,
      "Ġpercibo": 4143,
      "uesto": 4144,
      "ĠsÃŃmbolo": 4145,
      "lejo": 4146,
      "lemÃ¡tic": 4147,
      "saber": 4148,
      "Ġinmen": 4149,
      "Ġinicial": 4150,
      "Ġinneces": 4151,
      "Ġsilla": 4152,
      "col": 4153,
      "Ġsepara": 4154,
      "ezos": 4155,
      "Ġturno": 4156,
      "Ġcontrario": 4157,
      "ĠMÃ¡s": 4158,
      "Ġhoja": 4159,
      "Ġhojas": 4160,
      "ĠEscribir": 4161,
      "ĠGancho": 4162,
      "trado": 4163,
      "itaciÃ³n": 4164,
      "Ġpredica": 4165,
      "Ġprevisible": 4166,
      "irtiÃ³": 4167,
      "Ġcura": 4168,
      "ĠcuÃ¡ndo": 4169,
      "Ġcubrir": 4170,
      "Ġhables": 4171,
      "ĠhabitaciÃ³n": 4172,
      "ĠDefender": 4173,
      "Ġjerga": 4174,
      "Ġjornada": 4175,
      "Ġpromesa": 4176,
      "terial": 4177,
      "terno": 4178,
      "ternet": 4179,
      "Ġdiciendo": 4180,
      "QuiÃ©n": 4181,
      "Ġbienven": 4182,
      "Ġsentado": 4183,
      "aban": 4184,
      "Ġprono": 4185,
      "Ġprueba": 4186,
      "ĠprÃ³xima": 4187,
      "Ġtipos": 4188,
      "Ġtipado": 4189,
      "sonajes": 4190,
      "zamos": 4191,
      "ĠcreÃ³": 4192,
      "Ġcreciendo": 4193,
      "ĠMejor": 4194,
      "Ġexiste": 4195,
      "Ġcuentes": 4196,
      "ĠpatrÃ³n": 4197,
      "Ġdecimal": 4198,
      "Ġpeor": 4199,
      "Ġpelig": 4200,
      "ĠpedÃŃa": 4201,
      "ĠpeticiÃ³n": 4202,
      "Ġmide": 4203,
      "ĠPersonajes": 4204,
      "padea": 4205,
      "turo": 4206,
      "tumbre": 4207,
      "Ġvagas": 4208,
      "Ġvayas": 4209,
      "Ġnecesite": 4210,
      "vado": 4211,
      "guir": 4212,
      "Ġsalvo": 4213,
      "Ġsaltado": 4214,
      "Ġabre": 4215,
      "Ġabrir": 4216,
      "Ġabren": 4217,
      "Ã±alo": 4218,
      "ĠðŁĺĬ": 4219,
      "Ġactivo": 4220,
      "Ġacciona": 4221,
      "Ġacercar": 4222,
      "Ġancho": 4223,
      "cansa": 4224,
      "Ġtacto": 4225,
      "Ġtampoco": 4226,
      "Ġsiga": 4227,
      "Ġsiglos": 4228,
      "ĠsiguiÃ³": 4229,
      "Ġayude": 4230,
      "Ġdisentir": 4231,
      "ĠestÃ¡ndar": 4232,
      "Ġtrata": 4233,
      "Ġtradu": 4234,
      "Ġtranquilo": 4235,
      "Ġtraiga": 4236,
      "Ġvocab": 4237,
      "Ġcambian": 4238,
      "ĠcambiarÃ©": 4239,
      "Ġacuerdas": 4240,
      "Ġopuesto": 4241,
      "ulos": 4242,
      "ulizo": 4243,
      "ĠReci": 4244,
      "ĠRAE": 4245,
      "ĠRedu": 4246,
      "Ġorganizar": 4247,
      "Ġortograf": 4248,
      "Ġorigen": 4249,
      "Ġescribes": 4250,
      "ĠescribiÃ³": 4251,
      "Ġcompositor": 4252,
      "Ġexplicaciones": 4253,
      "Ġcoste": 4254,
      "Ġcostumbre": 4255,
      "Ġplato": 4256,
      "Ġtonalidad": 4257,
      "Ġapto": 4258,
      "Ġaplicar": 4259,
      "illaciÃ³n": 4260,
      "Ġarquite": 4261,
      "Ġarreglo": 4262,
      "liga": 4263,
      "ajamos": 4264,
      "ecemos": 4265,
      "dencial": 4266,
      "ĠniÃ±o": 4267,
      "Ġdesactual": 4268,
      "ĠdesafÃŃo": 4269,
      "Ġfallido": 4270,
      "Ġempresa": 4271,
      "licÃ³": 4272,
      "camos": 4273,
      "cativos": 4274,
      "Ġdesborda": 4275,
      "Ġprimer": 4276,
      "Ġlet": 4277,
      "Ġrigor": 4278,
      "Ġseguras": 4279,
      "ĠcomÃºn": 4280,
      "ĠguÃŃa": 4281,
      "Ġnormalmente": 4282,
      "Ġsabe": 4283,
      "tren": 4284,
      "Ġtrabajamos": 4285,
      "Ġclaros": 4286,
      "Ġambos": 4287,
      "Ġambigua": 4288,
      "Ġastronom": 4289,
      "Ġasist": 4290,
      "Ġmanta": 4291,
      "Ġmantienes": 4292,
      "Ġestable": 4293,
      "ĠJuegos": 4294,
      "Ġobvio": 4295,
      "Ġobliga": 4296,
      "ivos": 4297,
      "ivas": 4298,
      "Ġpartic": 4299,
      "Ġpartida": 4300,
      "Ġparpadea": 4301,
      "Ġcambiado": 4302,
      "piezos": 4303,
      "Ġmapa": 4304,
      "Ġmaterial": 4305,
      "ctives": 4306,
      "Ġrespondieron": 4307,
      "Ġajusto": 4308,
      "pongo": 4309,
      "ĠEmpecemos": 4310,
      "Ġridic": 4311,
      "ĠDescansa": 4312,
      "box": 4313,
      "ĠtomÃ³": 4314,
      "ĠFue": 4315,
      "Ġfaltaba": 4316,
      "ĠSeÃ±alo": 4317,
      "Ġcambiarlo": 4318,
      "Ġtotalmente": 4319,
      "rosas": 4320,
      "Ġfuncion": 4321,
      "ĠResiliencia": 4322,
      "ĠsonreÃŃr": 4323,
      "gaciÃ³n": 4324,
      "Ġcasi": 4325,
      "Ġentrega": 4326,
      "Ġentregas": 4327,
      "ĠentregÃ³": 4328,
      "Ġimposi": 4329,
      "Ġimpecable": 4330,
      "Ġconsigo": 4331,
      "Ġconsiste": 4332,
      "ĠÃºtiles": 4333,
      "Ġconfundo": 4334,
      "Ġconfuso": 4335,
      "Ġconfigura": 4336,
      "Ġempezando": 4337,
      "Ġestructuras": 4338,
      "Deja": 4339,
      "Ġpantalla": 4340,
      "Ġlentas": 4341,
      "Ġrobot": 4342,
      "Ġmoder": 4343,
      "biado": 4344,
      "Ġcierran": 4345,
      "ĠtÃ©rmino": 4346,
      "ensivos": 4347,
      "Ġdistinta": 4348,
      "Ġdistinguir": 4349,
      "ĠpÃ¡ginas": 4350,
      "ĠconvirtiÃ³": 4351,
      "Ġpidas": 4352,
      "Ġpidiendo": 4353,
      "Ġconoce": 4354,
      "Ġconoces": 4355,
      "Ġconocimien": 4356,
      "Ġreuniones": 4357,
      "ĠresponderÃ©": 4358,
      "Ġbuscando": 4359,
      "ĠreacciÃ³n": 4360,
      "Ġevito": 4361,
      "Ġacaba": 4362,
      "Ġmalvado": 4363,
      "ĠExpongo": 4364,
      "Ġbrevedad": 4365,
      "dicos": 4366,
      "Ġpropongas": 4367,
      "ĠpublicÃ³": 4368,
      "Ġviolencia": 4369,
      "Ġreciben": 4370,
      "Ġcultura": 4371,
      "Ġculpar": 4372,
      "Ġculinari": 4373,
      "Ġtildes": 4374,
      "Ġcocinas": 4375,
      "Ġdetectar": 4376,
      "Ġdetectives": 4377,
      "Ġplaneta": 4378,
      "Ġguarden": 4379,
      "Ġguardar": 4380,
      "ĠmensajerÃŃa": 4381,
      "Ġentendiera": 4382,
      "Ġfuturo": 4383,
      "carlo": 4384,
      "Ġborder": 4385,
      "Ordena": 4386,
      "ĠHablarÃ©": 4387,
      "Ġsustitu": 4388,
      "Ġdiscute": 4389,
      "ĠdiscutiÃ³": 4390,
      "Ġrepetic": 4391,
      "Ġexacta": 4392,
      "Ġcerrado": 4393,
      "ĠAlterno": 4394,
      "Capitana": 4395,
      "Ġtantos": 4396,
      "ordar": 4397,
      "ĠCompaÃ±ero": 4398,
      "Ġdepender": 4399,
      "Ġmarcha": 4400,
      "Ġsignificado": 4401,
      "ĠnotaciÃ³n": 4402,
      "Ġreferen": 4403,
      "Ġreflejo": 4404,
      "Ġprobando": 4405,
      "Ġprobable": 4406,
      "Ġpriorizar": 4407,
      "Ġimportan": 4408,
      "trarse": 4409,
      "Ġconfidencial": 4410,
      "Ġbastaba": 4411,
      "Ġpersonalidad": 4412,
      "Ġrecuper": 4413,
      "Ġrecursos": 4414,
      "âĢĿ,": 4415,
      "âĢĿ:": 4416,
      "Ġjugue": 4417,
      "Ġespecialmente": 4418,
      "Ġtropiezos": 4419,
      "Ġcapaz": 4420,
      "Ġinsistir": 4421,
      "ĠInterpre": 4422,
      "ĠInternet": 4423,
      "Ġingrediente": 4424,
      "Ġcontrol": 4425,
      "Ġdiferente": 4426,
      "Ġusado": 4427,
      "Ġocupado": 4428,
      "Ġvolver": 4429,
      "Ġvoluntar": 4430,
      "Ġconsulta": 4431,
      "Ġconsultaste": 4432,
      "ĠConsiste": 4433,
      "ĠConviene": 4434,
      "Ġestupenda": 4435,
      "Ġabsurdas": 4436,
      "Ġcomprobable": 4437,
      "Ġreconocen": 4438,
      "Ġreconociendo": 4439,
      "Ġrepetirlas": 4440,
      "cirÃŃas": 4441,
      "Ġenlace": 4442,
      "Ġactualiza": 4443,
      "Ġagradecimiento": 4444,
      "Ġcalendarios": 4445,
      "pareciste": 4446,
      "Ġcuestiones": 4447,
      "Ġofensivos": 4448,
      "Ġneutral": 4449,
      "Ġincluso": 4450,
      "Ġexpresivas": 4451,
      "Ġvuelta": 4452,
      "Ġformula": 4453,
      "Ġcotidianas": 4454,
      "ĠQuita": 4455,
      "ĠmÃ©dicos": 4456,
      "Ġveamos": 4457,
      "Ġninguno": 4458,
      "Ġbox": 4459,
      "Ġreleer": 4460,
      "Ġidentidad": 4461,
      "Ġdesbloquearlo": 4462,
      "Ġentienda": 4463,
      "Ġestudiante": 4464,
      "ĠsuposiciÃ³n": 4465,
      "ĠHago": 4466,
      "ĠHace": 4467,
      "Ġexplicas": 4468,
      "Ġaparezca": 4469,
      "ĠaparecÃŃa": 4470,
      "Ġinterprete": 4471,
      "Ġinterpretado": 4472,
      "ĠintentarÃ©": 4473,
      "Ġintentarlo": 4474,
      "Ġrepresentan": 4475,
      "ĠrepresentaciÃ³n": 4476,
      "Ġrevisaron": 4477,
      "ĠexclamaciÃ³n": 4478,
      "Ġexclamaciones": 4479,
      "Ġexclamativa": 4480,
      "Ġexclamativas": 4481,
      "Ġservir": 4482,
      "ĠconvertirÃ©": 4483,
      "Ġconvertirse": 4484,
      "ĠÃºnico": 4485,
      "Ġclase": 4486,
      "Ġcomentario": 4487,
      "Ġnarrativa": 4488,
      "Ġrespirar": 4489,
      "ĠobstÃ¡culos": 4490,
      "Ġcuestionas": 4491,
      "blue": 4492,
      "ĠhumillaciÃ³n": 4493,
      "ĠEvito": 4494,
      "ĠNadie": 4495,
      "Ġcualquier": 4496,
      "Ġsegunda": 4497,
      "Ġatacar": 4498,
      "Ġataques": 4499,
      "Ġfrescura": 4500,
      "Ġdesarrolla": 4501,
      "Ġdesarrollo": 4502,
      "ĠinterrogaciÃ³n": 4503,
      "Ġcorregirlo": 4504,
      "Ġcorregirlas": 4505,
      "Ġespere": 4506,
      "Ġprofesional": 4507,
      "ĠfÃ¡ciles": 4508,
      "Ġpreparado": 4509,
      "ĠcontradicciÃ³n": 4510,
      "Ġcontradicciones": 4511,
      "ĠinstrucciÃ³n": 4512,
      "Ġmemorizar": 4513,
      "Ġvariables": 4514,
      "Ġadaptarse": 4515,
      "Ġobservaciones": 4516,
      "Ġobservacion": 4517,
      "ĠcuestionarÃŃa": 4518,
      "perada": 4519,
      "Ġdirigir": 4520,
      "Ġfuerte": 4521,
      "Ġfuertes": 4522,
      "Ġverificado": 4523,
      "Ġrevelar": 4524,
      "Ġseleccionar": 4525,
      "Ġsaludarme": 4526,
      "Ġactividad": 4527,
      "ĠactivÃ³": 4528,
      "ĠtamaÃ±o": 4529,
      "ĠexplÃŃcita": 4530,
      "Ġcostando": 4531,
      "Ġargumentos": 4532,
      "Ġrecomiendas": 4533,
      "Ġpropios": 4534,
      "Ġherramientas": 4535,
      "Ġcentrado": 4536,
      "Ġindica": 4537,
      "ĠcontraseÃ±a": 4538,
      "Ġprecisos": 4539,
      "ĠIdentifica": 4540,
      "Ġbuscarlo": 4541,
      "ĠautomÃ¡tico": 4542,
      "Ġdeclarados": 4543,
      "Ġinterrogativa": 4544,
      "Ġinterrogativas": 4545,
      "peradas": 4546,
      "Ġhoras": 4547,
      "Ġcarga": 4548,
      "Ġcargar": 4549,
      "Ġmostrarte": 4550,
      "ĠtecnolÃ³": 4551,
      "ĠtecnologÃŃa": 4552,
      "Ġgripe": 4553,
      "Ġgritar": 4554,
      "Ġfiltren": 4555,
      "Ġfiltrarse": 4556,
      "tituyo": 4557,
      "ĠPromete": 4558,
      "ĠPrometÃŃa": 4559,
      "Ġrecorrido": 4560,
      "Ġrecordar": 4561,
      "Ġinesperada": 4562,
      "Ġinesperadas": 4563,
      "Ġdespistes": 4564,
      "Ġdesplaza": 4565,
      "Ġproceso": 4566,
      "Ġprocesos": 4567,
      "Ġproductividad": 4568,
      "ĠproducirÃŃas": 4569,
      "Ġcompleta": 4570,
      "Ġcompletar": 4571,
      "Ġapuntes": 4572,
      "Ġapuntan": 4573,
      "Ġempieza": 4574,
      "Ġempiezas": 4575,
      "Ġcontradigo": 4576,
      "Ġcontradigas": 4577,
      "Ġanalizado": 4578,
      "ĠclichÃ©": 4579,
      "ĠclichÃ©s": 4580,
      "Ġincluir": 4581,
      "Ġincluyan": 4582,
      "Ġidentificador": 4583,
      "Ġcompartimos": 4584,
      "Ġcompartidos": 4585,
      "ĠadecuaciÃ³n": 4586,
      "Ġadecuados": 4587,
      "ĠsospechÃ³": 4588,
      "Ġsospechaban": 4589,
      "Ġescritor": 4590,
      "Ġescritores": 4591,
      "ĠtelÃ©fono": 4592,
      "ĠtelÃ©fonos": 4593,
      "Buscamos": 4594,
      "Ġdarks": 4595,
      "ĠmÃŃnimo": 4596,
      "ĠmÃ³dulos": 4597,
      "Ġburlarme": 4598,
      "ĠlÃŃmites": 4599,
      "Ġnovela": 4600,
      "ĠTermino": 4601,
      "ĠresolviÃ³": 4602,
      "ĠseÃ±alada": 4603,
      "ĠValor": 4604,
      "ĠCambia": 4605,
      "Ġmejorada": 4606,
      "ĠtransformaciÃ³n": 4607,
      "Ġaprende": 4608,
      "Ġinteractividad": 4609,
      "Ġinfluencer": 4610,
      "Ġbuscaban": 4611,
      "Ġfacilitar": 4612,
      "Ġinspirar": 4613,
      "ĠIntentarÃ©": 4614,
      "ĠdifÃŃciles": 4615,
      "ĠreconocerÃ©": 4616,
      "Ġprincipiante": 4617,
      "Ġentendias": 4618,
      "\"]:": 4619,
      "Ġmascot": 4620,
      "ĠLleva": 4621,
      "Ġacceso": 4622,
      "Ġresponsable": 4623,
      "Ġseguimiento": 4624,
      "Ġmanejo": 4625,
      "Avanzamos": 4626,
      "Muy": 4627,
      "Mejorar": 4628,
      "Prefieres": 4629,
      "Reapareciste": 4630,
      "icismos": 4631,
      "mÃ©todo": 4632,
      "mango": 4633,
      "nerables": 4634,
      "sizing": 4635,
      "Ġweb": 4636,
      "Ġcaracol": 4637,
      "Ġahorra": 4638,
      "Ġagobiado": 4639,
      "Ġantagonista": 4640,
      "ĠaÃ±adiÃ³": 4641,
      "Ġaumenta": 4642,
      "Ġadulo": 4643,
      "Ġadicional": 4644,
      "Ġpierde": 4645,
      "Ġpotentes": 4646,
      "ĠdaÃ±o": 4647,
      "ĠdurÃ³": 4648,
      "Ġdudoso": 4649,
      "ĠsÃ¡tira": 4650,
      "Ġcopiloto": 4651,
      "Ġoficina": 4652,
      "lateblue": 4653,
      "ĠemblemÃ¡tic": 4654,
      "Ġeducativos": 4655,
      "Ġmitad": 4656,
      "Ġmaleta": 4657,
      "ĠmÃºsico": 4658,
      "Ġquitando": 4659,
      "Ġescolar": 4660,
      "Ġvigente": 4661,
      "ĠvÃ¡lida": 4662,
      "Ġvulnerables": 4663,
      "Ġconsola": 4664,
      "ĠconexiÃ³n": 4665,
      "Ġnegro": 4666,
      "Ġnoticia": 4667,
      "ĠningÃºn": 4668,
      "Ġtecnicismos": 4669,
      "Ġbiodiversidad": 4670,
      "ĠhistÃ³rico": 4671,
      "ĠSustituyo": 4672,
      "ĠgrÃ¡fica": 4673,
      "ĠllovÃŃan": 4674,
      "Ġenmarcan": 4675,
      "ĠengaÃ±ar": 4676,
      "ĠCritico": 4677,
      "ĠColocarlo": 4678,
      "Ġsoluciones": 4679,
      "Ġflujo": 4680,
      "ĠfÃ³rmulas": 4681,
      "Ġmedicina": 4682,
      "Ġretrasa": 4683,
      "Ġrecall": 4684,
      "Ġrebanada": 4685,
      "Ġreescribirla": 4686,
      "Ġreasignan": 4687,
      "Ġreinterpretar": 4688,
      "Ġsuelen": 4689,
      "Ġinmensa": 4690,
      "Ġinnecesarios": 4691,
      "Ġpredicado": 4692,
      "ĠDefenderÃ©": 4693,
      "Ġbienvenida": 4694,
      "Ġpronombre": 4695,
      "Ġpeligrosas": 4696,
      "Ġaccionables": 4697,
      "Ġacercarnos": 4698,
      "Ġtraduces": 4699,
      "Ġvocabulario": 4700,
      "ĠRecibido": 4701,
      "ĠReduce": 4702,
      "Ġorganizarlo": 4703,
      "ĠortografÃŃa": 4704,
      "Ġarquitecto": 4705,
      "Ġdesactualizada": 4706,
      "Ġdesbordado": 4707,
      "ĠastronomÃŃa": 4708,
      "Ġasistente": 4709,
      "Ġparticular": 4710,
      "Ġridiculizo": 4711,
      "Ġimposible": 4712,
      "Ġmoderno": 4713,
      "Ġconocimientos": 4714,
      "Ġculinarias": 4715,
      "Ġsustituir": 4716,
      "Ġrepeticiones": 4717,
      "Ġexactamente": 4718,
      "Ġreferencias": 4719,
      "Ġprobablemente": 4720,
      "Ġrecuperarse": 4721,
      "ĠjuguetÃ³n": 4722,
      "ĠInterpreta": 4723,
      "Ġvoluntaria": 4724,
      "Ġobservacional": 4725,
      "ĠtecnolÃ³gico": 4726,
      "Ġdesplazado": 4727,
      "Ġdarkslateblue": 4728,
      "Ġmascotas": 4729,
      "ĠemblemÃ¡ticos": 4730,
      "!\"": 4731,
      "\")": 4732,
      "\">": 4733,
      "\"><": 4734,
      "\">.": 4735,
      "):": 4736,
      "00": 4737,
      ";.": 4738,
      ">,": 4739,
      "?Â»?": 4740,
      "Ab": 4741,
      "DN": 4742,
      "Es": 4743,
      "Hecho": 4744,
      "Soy": 4745,
      "Una": 4746,
      "briÃ³": 4747,
      "cs": 4748,
      "cada": 4749,
      "cens": 4750,
      "cuentras": 4751,
      "diente": 4752,
      "dece": 4753,
      "gi": 4754,
      "gÃ¼": 4755,
      "har": 4756,
      "hee": 4757,
      "im": 4758,
      "idos": 4759,
      "itÃ³": 4760,
      "itario": 4761,
      "jÃ³n": 4762,
      "jara": 4763,
      "llar": 4764,
      "lve": 4765,
      "mis": 4766,
      "mica": 4767,
      "mota": 4768,
      "ngi": 4769,
      "pÃ³": 4770,
      "punto": 4771,
      "prÃ©": 4772,
      "rn": 4773,
      "rdena": 4774,
      "riges": 4775,
      "st": 4776,
      "tf": 4777,
      "tw": 4778,
      "tÃº": 4779,
      "tÃ©n": 4780,
      "tCon": 4781,
      "tiendo": 4782,
      "uarla": 4783,
      "urar": 4784,
      "uraciÃ³n": 4785,
      "utf": 4786,
      "vue": 4787,
      "vÃŃo": 4788,
      "xitos": 4789,
      "xtCon": 4790,
      "yles": 4791,
      "zaje": 4792,
      "zgar": 4793,
      "Â¡": 4794,
      "Ãī": 4795,
      "ĠÃ¡": 4796,
      "eria": 4797,
      "erva": 4798,
      "erno": 4799,
      "are": 4800,
      "ĠcÃ³": 4801,
      "Ġcif": 4802,
      "Ġcentro": 4803,
      "Ġcitas": 4804,
      "estÃ¡": 4805,
      "esgos": 4806,
      "estilos": 4807,
      "iono": 4808,
      "enza": 4809,
      "entas": 4810,
      "encil": 4811,
      "enÃ©r": 4812,
      "gerir": 4813,
      "ĠadiÃ³s": 4814,
      "Ġpec": 4815,
      "Ġpista": 4816,
      "Ġdio": 4817,
      "Ġdarte": 4818,
      "Ġdud": 4819,
      "ĠduraciÃ³n": 4820,
      "ĠsÃ³": 4821,
      "Ġtien": 4822,
      "Ġtend": 4823,
      "quil": 4824,
      "quina": 4825,
      "rame": 4826,
      "Ġdefecto": 4827,
      "Ġdetr": 4828,
      "Ġdejara": 4829,
      "Ġdevue": 4830,
      "tame": 4831,
      "Ġecha": 4832,
      "ĠmÃ¡": 4833,
      "Ġmues": 4834,
      "Ġmir": 4835,
      "Ġmarco": 4836,
      "tomo": 4837,
      "cisa": 4838,
      "cifici": 4839,
      "cidades": 4840,
      "Ġescon": 4841,
      "Ġvida": 4842,
      "recisa": 4843,
      "textCon": 4844,
      "local": 4845,
      "Ġcondiciones": 4846,
      "inar": 4847,
      "inarios": 4848,
      "aluarla": 4849,
      "antil": 4850,
      "ort": 4851,
      "ortar": 4852,
      "orden": 4853,
      "igiÃ³": 4854,
      "igÃ¼": 4855,
      "Ġelec": 4856,
      "Ġelif": 4857,
      "ĠeligiÃ³": 4858,
      "ectos": 4859,
      "ĠharÃ©": 4860,
      "ĠSencil": 4861,
      "morable": 4862,
      "resiÃ³n": 4863,
      "respon": 4864,
      "Ġgeo": 4865,
      "ĠgenÃ©r": 4866,
      "uenta": 4867,
      "uentes": 4868,
      "egre": 4869,
      "Ġentra": 4870,
      "ĠenvÃŃo": 4871,
      "ĠCuest": 4872,
      "ĠCuenta": 4873,
      "Ġsomb": 4874,
      "Ġfech": 4875,
      "Ġfigura": 4876,
      "Ġferia": 4877,
      "Ġfuentes": 4878,
      "mado": 4879,
      "Ġmetada": 4880,
      "Ġmemorable": 4881,
      "meta": 4882,
      "tidu": 4883,
      "ĠvergÃ¼": 4884,
      "ĠPido": 4885,
      "ĠallÃ¡": 4886,
      "Ġalegre": 4887,
      "Ġhagas": 4888,
      "Ġrel": 4889,
      "Ġretu": 4890,
      "Ġrepro": 4891,
      "Ġremota": 4892,
      "Ġcamino": 4893,
      "ĠcajÃ³n": 4894,
      "Ġlongi": 4895,
      "Ġsuce": 4896,
      "Ġsumas": 4897,
      "Ġsugerir": 4898,
      "ĠAhora": 4899,
      "Ġperder": 4900,
      "uesta": 4901,
      "ĠDentro": 4902,
      "âĢ¦Â».": 4903,
      "Ġresulta": 4904,
      "Ġincer": 4905,
      "Ġpuesto": 4906,
      "Ġdescrib": 4907,
      "Ġdesper": 4908,
      "Ġdesorden": 4909,
      "ĠMesa": 4910,
      "ĠMarco": 4911,
      "ĠMDN": 4912,
      "cuchar": 4913,
      "Ãºo": 4914,
      "ciono": 4915,
      "usco": 4916,
      "ustar": 4917,
      "ĠEscena": 4918,
      "ĠEscuchar": 4919,
      "Ġsino": 4920,
      "trales": 4921,
      "ĠListo": 4922,
      "Ġpreparo": 4923,
      "Ġpremis": 4924,
      "ĠcuÃ¡n": 4925,
      "Ġcuad": 4926,
      "Ġ\"Â¡": 4927,
      "Ġjusto": 4928,
      "teral": 4929,
      "Ġcorriges": 4930,
      "Ġcorrespon": 4931,
      "Ġpobre": 4932,
      "ĠpodÃŃa": 4933,
      "Ġpasil": 4934,
      "Ġliteral": 4935,
      "Ġpauso": 4936,
      "Ġcantidad": 4937,
      "Ġseria": 4938,
      "ĠBusco": 4939,
      "ĠVari": 4940,
      "ĠPero": 4941,
      "tud": 4942,
      "turas": 4943,
      "tent": 4944,
      "Ġpreguntarte": 4945,
      "ĠsaliÃ³": 4946,
      "ĠaclÃ¡": 4947,
      "Ġacortar": 4948,
      "Ġances": 4949,
      "Ġandas": 4950,
      "Ġanota": 4951,
      "Ġmejoro": 4952,
      "chas": 4953,
      "ĠhipÃ³": 4954,
      "Ġbaja": 4955,
      "Ġdisim": 4956,
      "minaron": 4957,
      "Ġtratarte": 4958,
      "Ġhablas": 4959,
      "Ġcambiante": 4960,
      "Ġopositor": 4961,
      "faz": 4962,
      "uliar": 4963,
      "Ġmenciono": 4964,
      "Ġ23": 4965,
      "ĠOrdena": 4966,
      "Ġdesaparece": 4967,
      "Ġfallo": 4968,
      "Ġfalsa": 4969,
      "Ġuses": 4970,
      "set": 4971,
      "Ġsentidos": 4972,
      "Ġprimeros": 4973,
      "ĠDijo": 4974,
      "Ġconcretos": 4975,
      "Ġlee": 4976,
      "Ġrisa": 4977,
      "Ġsegura": 4978,
      "ĠguÃŃas": 4979,
      "Ġlleno": 4980,
      "ĠambigÃ¼": 4981,
      "ĠinterprÃ©": 4982,
      "Ġinterfaz": 4983,
      "Ġhablarme": 4984,
      "podemos": 4985,
      "Ġascens": 4986,
      "Ġmantend": 4987,
      "Ġmanej": 4988,
      "Ġestabilidad": 4989,
      "ivista": 4990,
      "Ġparo": 4991,
      "Ġpartes": 4992,
      "Ġllegan": 4993,
      "Ġvariar": 4994,
      "ĠvariarÃ©": 4995,
      "Ġmala": 4996,
      "ctiva": 4997,
      "ĠEncuentras": 4998,
      "ĠEntiendo": 4999,
      "Ġajustar": 5000,
      "Ġcharset": 5001,
      "poniendo": 5002,
      "Ġriesgos": 5003,
      "Ġreglas": 5004,
      "Ġignores": 5005,
      "BuenÃŃsimo": 5006,
      "Ġtomado": 5007,
      "ducir": 5008,
      "Ġchau": 5009,
      "ĠReserva": 5010,
      "licaciÃ³n": 5011,
      "Ġimaginar": 5012,
      "Ġimporte": 5013,
      "Ġimprecisa": 5014,
      "Ġimport": 5015,
      "ĠimpresiÃ³n": 5016,
      "Ġconstan": 5017,
      "Ġinvita": 5018,
      "ĠinvitÃ³": 5019,
      "Ġinventas": 5020,
      "Ġconfirma": 5021,
      "Ġconfusa": 5022,
      "Ġsolitario": 5023,
      "ĠcÃ¡lidos": 5024,
      "Ġnuevas": 5025,
      "Ġagrupo": 5026,
      "izaciÃ³n": 5027,
      "ositivo": 5028,
      "recen": 5029,
      "Ġinfantil": 5030,
      "Ġdistintos": 5031,
      "Ġaudio": 5032,
      "Ġformas": 5033,
      "Ġformando": 5034,
      "Ġlargas": 5035,
      "Ġbusco": 5036,
      "ĠevalÃº": 5037,
      "Ġevaluarla": 5038,
      "Ġcoloco": 5039,
      "ĠmatemÃ¡tico": 5040,
      "Ġvalioso": 5041,
      "Ġpapeles": 5042,
      "Ġaclararse": 5043,
      "iremos": 5044,
      "ĠpublicaciÃ³n": 5045,
      "Ġadaptas": 5046,
      "Ġrecipro": 5047,
      "Ġculpo": 5048,
      "Ġculturas": 5049,
      "Ġlang": 5050,
      "Ġplanificar": 5051,
      "ĠðŁĺĶ?": 5052,
      "ĠHablo": 5053,
      "ĠcelebraciÃ³n": 5054,
      "Ġsustan": 5055,
      "Ġsubiremos": 5056,
      "Ġcontrapunto": 5057,
      "Ġexamen": 5058,
      "Ġaprendido": 5059,
      "Ġsorprendente": 5060,
      "ĠAllÃŃ": 5061,
      "Ġpaciente": 5062,
      "Ġzapato": 5063,
      "Ġdepurar": 5064,
      "Ġsoftw": 5065,
      "Ġproyectos": 5066,
      "Ġexplicarlo": 5067,
      "Ġespecifici": 5068,
      "Ġviva": 5069,
      "Ġprobemos": 5070,
      "Ġreviso": 5071,
      "Ġgrados": 5072,
      "ĠgramÃ¡tica": 5073,
      "ĠfrÃŃo": 5074,
      "ĠÃºltimos": 5075,
      "Ġagotado": 5076,
      "Ġhazla": 5077,
      "Ġdocumenta": 5078,
      "Ġhuir": 5079,
      "Ġfiable": 5080,
      "Ġfiabilidad": 5081,
      "Ġjuzgar": 5082,
      "Ġinventada": 5083,
      "Ġcapacidades": 5084,
      "Ġinsisto": 5085,
      "ĠMantÃ©n": 5086,
      "Ġagradece": 5087,
      "Ġreconozco": 5088,
      "Ġreconocible": 5089,
      "ĠseÃ±alÃ³": 5090,
      "ĠseÃ±alarÃ©": 5091,
      "ĠejecuciÃ³n": 5092,
      "Ġejecutar": 5093,
      "ĠcrÃŃticamente": 5094,
      "ĠPruebo": 5095,
      "ĠMuchas": 5096,
      "Ġofrecen": 5097,
      "Ġenfocada": 5098,
      "Ġdispuesta": 5099,
      "Ġdispositivo": 5100,
      "Ġexpresas": 5101,
      "Ġexpresivo": 5102,
      "Ġexpresarse": 5103,
      "Ġamabilidad": 5104,
      "Ġquedarse": 5105,
      "Ġentiendes": 5106,
      "buenas": 5107,
      "link": 5108,
      "Ġrestante": 5109,
      "Ġexplican": 5110,
      "ĠinterpretarÃ©": 5111,
      "ĠdiscutirÃ©": 5112,
      "Ġposponiendo": 5113,
      "Ġpositivo": 5114,
      "Ġluces": 5115,
      "Ġexcusas": 5116,
      "Ġconvertirlas": 5117,
      "Ġopiniones": 5118,
      "Ġarchivista": 5119,
      "Ġllevar": 5120,
      "llen": 5121,
      "ĠEvalÃº": 5122,
      "ĠcontinÃºo": 5123,
      "Ġabierto": 5124,
      "Ġrazonables": 5125,
      "Ġencajar": 5126,
      "Ġataque": 5127,
      "Ġatajo": 5128,
      "Ġdesarrollar": 5129,
      "Ġdesarrollen": 5130,
      "Ġdivertidos": 5131,
      "Ġextraordinarios": 5132,
      "Ġesperando": 5133,
      "Ġlugares": 5134,
      "endizaje": 5135,
      "Ġremato": 5136,
      "ĠDefinimos": 5137,
      "mÃ¡ticamente": 5138,
      "Ġpiensas": 5139,
      "Ġsostener": 5140,
      "Ġescritura": 5141,
      "Ġforme": 5142,
      "Ġfuerza": 5143,
      "Ġsaludar": 5144,
      "Ġactive": 5145,
      "Ġllamado": 5146,
      "ĠespecÃŃfico": 5147,
      "Ġcenar": 5148,
      "Ġcentral": 5149,
      "ĠentendiÃ³": 5150,
      "Ġnaturalidad": 5151,
      "ĠautorÃŃa": 5152,
      "ĠautomÃ¡ticamente": 5153,
      "Ġsupuesto": 5154,
      "ĠdeclaraciÃ³n": 5155,
      "Ġdeclaraciones": 5156,
      "Ġconserve": 5157,
      "Ġconservo": 5158,
      "Ġconservar": 5159,
      "Ġconfundirse": 5160,
      "Buscas": 5161,
      "Ġ500": 5162,
      "Ġdarle": 5163,
      "ĠmÃŃnima": 5164,
      "ĠmÃ³dulo": 5165,
      "Ġburla": 5166,
      "ĠlÃŃmite": 5167,
      "Ġnovedad": 5168,
      "ĠTerminaron": 5169,
      "Ġresolviste": 5170,
      "ĠseÃ±alo": 5171,
      "ĠCambio": 5172,
      "Ġmejoras": 5173,
      "Ġtranquil": 5174,
      "Ġaprendizaje": 5175,
      "ĠpresentaciÃ³n": 5176,
      "Ġinteractiva": 5177,
      "Ġquitarle": 5178,
      "Ġinfluencia": 5179,
      "Ġbuscaba": 5180,
      "Ġfacilidad": 5181,
      "Ġentenderte": 5182,
      "ĠinspiraciÃ³n": 5183,
      "ĠIntento": 5184,
      "ĠdifÃŃcil": 5185,
      "Ġconsultaron": 5186,
      "Ġprincipiantes": 5187,
      "Ġentendible": 5188,
      "Ġcombina": 5189,
      "Ġcombinar": 5190,
      "Ġseparar": 5191,
      "ĠsepararÃ©": 5192,
      "Ġdescubre": 5193,
      "ĠdescubriÃ³": 5194,
      "Ġutilidad": 5195,
      "Ġutilizar": 5196,
      "Ġposibilidades": 5197,
      "Ġsensoriales": 5198,
      "Ġconfirmarlo": 5199,
      "!\";": 5200,
      "\").": 5201,
      "Abres": 5202,
      "Esta": 5203,
      "css": 5204,
      "heet": 5205,
      "styles": 5206,
      "Ãīxitos": 5207,
      "ĠÃ¡tomo": 5208,
      "ĠcÃ³mica": 5209,
      "Ġcifra": 5210,
      "Ġpeculiar": 5211,
      "Ġdudar": 5212,
      "ĠsÃ³lido": 5213,
      "Ġtienen": 5214,
      "ĠtendrÃ©": 5215,
      "ĠdetrÃ¡s": 5216,
      "Ġdevuelve": 5217,
      "ĠmÃ¡quina": 5218,
      "Ġmuestro": 5219,
      "Ġmirarla": 5220,
      "Ġescondes": 5221,
      "textContent": 5222,
      "localizaciÃ³n": 5223,
      "ĠelectrÃ³n": 5224,
      "ĠSencillo": 5225,
      "ĠgeolocalizaciÃ³n": 5226,
      "ĠgenÃ©rica": 5227,
      "ĠCuestiono": 5228,
      "Ġsombras": 5229,
      "Ġfechas": 5230,
      "Ġfigurado": 5231,
      "Ġmetadatos": 5232,
      "tidumbre": 5233,
      "ĠvergÃ¼enza": 5234,
      "Ġreturn": 5235,
      "Ġreproducir": 5236,
      "Ġlongitud": 5237,
      "Ġsucede": 5238,
      "Ġperderse": 5239,
      "Ġresultados": 5240,
      "Ġincertidumbre": 5241,
      "Ġdescribes": 5242,
      "ĠdespertÃ³": 5243,
      "Ġpremisas": 5244,
      "ĠcuÃ¡nto": 5245,
      "Ġcuaderno": 5246,
      "Ġcorrespondiente": 5247,
      "Ġpasillo": 5248,
      "ĠVariarÃ©": 5249,
      "ĠaclÃ¡rame": 5250,
      "Ġancestrales": 5251,
      "ĠhipÃ³tesis": 5252,
      "Ġdisimulo": 5253,
      "ĠambigÃ¼edad": 5254,
      "ĠinterprÃ©tame": 5255,
      "Ġascensor": 5256,
      "ĠmantendrÃ©": 5257,
      "Ġmanejable": 5258,
      "Ġajustaremos": 5259,
      "Ġconstancia": 5260,
      "Ġconfirmado": 5261,
      "ĠevalÃºo": 5262,
      "Ġreciprocidad": 5263,
      "Ġsustantivo": 5264,
      "Ġsoftware": 5265,
      "Ġespecificidad": 5266,
      "ĠdocumentaciÃ³n": 5267,
      "ĠEvalÃºa": 5268,
      "Ġtranquilos": 5269,
      "stylesheet": 5270,
      "Ana": 5271,
      "CER": 5272,
      "DE": 5273,
      "Genial": 5274,
      "LA": 5275,
      "Lu": 5276,
      "Mara": 5277,
      "OLA": 5278,
      "Per": 5279,
      "Re": 5280,
      "Tok": 5281,
      "UCER": 5282,
      "Vale": 5283,
      "giste": 5284,
      "iten": 5285,
      "kTok": 5286,
      "ptu": 5287,
      "vial": 5288,
      "Ġbot": 5289,
      "ert": 5290,
      "erar": 5291,
      "ionada": 5292,
      "ence": 5293,
      "Ġacepto": 5294,
      "Ġtri": 5295,
      "undi": 5296,
      "table": 5297,
      "Ġmol": 5298,
      "Ġmundi": 5299,
      "cidos": 5300,
      "ciste": 5301,
      "Ġeste": 5302,
      "Ġvarios": 5303,
      "Ġcondic": 5304,
      "Ġconcepto": 5305,
      "almente": 5306,
      "hola": 5307,
      "isica": 5308,
      "ĠbÃºs": 5309,
      "Ġquejar": 5310,
      "dear": 5311,
      "decible": 5312,
      "Ġenum": 5313,
      "Ġfisica": 5314,
      "mamente": 5315,
      "culado": 5316,
      "Ġalert": 5317,
      "Ġhaciendo": 5318,
      "Ġcaptu": 5319,
      "queda": 5320,
      "Ġdespi": 5321,
      "ĠdesvÃŃa": 5322,
      "cept": 5323,
      "ĠLUCER": 5324,
      "Ġpredecible": 5325,
      "ĠHOLA": 5326,
      "Ġexige": 5327,
      "Ġexcep": 5328,
      "Ġexcept": 5329,
      "Ġpagin": 5330,
      "Ġserio": 5331,
      "ĠVER": 5332,
      "Ġcalculado": 5333,
      "idada": 5334,
      "ormulo": 5335,
      "Ġanidar": 5336,
      "Ġanidada": 5337,
      "Cuando": 5338,
      "Ġayudas": 5339,
      "Ġhiciste": 5340,
      "Ġcomparo": 5341,
      "Ġcostes": 5342,
      "Ġtermino": 5343,
      "grada": 5344,
      "Ġmutable": 5345,
      "dasd": 5346,
      "Ġclaras": 5347,
      "Ġintegrada": 5348,
      "Ġcreativos": 5349,
      "Ġasdasd": 5350,
      "Ġmantener": 5351,
      "Ġparecido": 5352,
      "Ġcorregiste": 5353,
      "Ġtry": 5354,
      "Ġintento": 5355,
      "Ġdeben": 5356,
      "ĠcercanÃŃa": 5357,
      "els": 5358,
      "Ġciertos": 5359,
      "ensible": 5360,
      "Ġconvence": 5361,
      "Ġpieza": 5362,
      "Ġllevan": 5363,
      "ĠTikTok": 5364,
      "Ġzapatos": 5365,
      "Ġreformulo": 5366,
      "ĠÃºltimamente": 5367,
      "Ġordenada": 5368,
      "Ġcontrolada": 5369,
      "Ġreconocidos": 5370,
      "ĠseÃ±ales": 5371,
      "Ġpermiten": 5372,
      "Ġsupero": 5373,
      "Ġsuperar": 5374,
      "Ġexclamativos": 5375,
      "Ġcuantica": 5376,
      "ĠÃºnicos": 5377,
      "bilidades": 5378,
      "Ġligereza": 5379,
      "Ġllevaba": 5380,
      "Ġindirectas": 5381,
      "Ġcomprensible": 5382,
      "Ġventajas": 5383,
      "ĠrÃŃe": 5384,
      "Ġposts": 5385,
      "ĠDefino": 5386,
      "ĠocurriÃ³": 5387,
      "Ġvideos": 5388,
      "Ġinterrogativos": 5389,
      "ĠPresenta": 5390,
      "\"].": 5391,
      "Ġmasa": 5392,
      "ĠLlevan": 5393,
      "Ġaccesible": 5394,
      "Ġresponsabilidades": 5395,
      "Ġseguidos": 5396,
      "Ġmanejar": 5397,
      "Ġcorrectamente": 5398,
      "Ġmodificarlos": 5399,
      "Ġfuncionan": 5400,
      "Ġfuncionara": 5401,
      "Luis": 5402,
      "Perfecto": 5403,
      "Reels": 5404,
      "vializar": 5405,
      "ĠbotÃ³n": 5406,
      "Ġtrivializar": 5407,
      "Ġmoldear": 5408,
      "Ġmundialmente": 5409,
      "Ġcondicionada": 5410,
      "ĠbÃºsqueda": 5411,
      "Ġquejarse": 5412,
      "Ġenumero": 5413,
      "Ġcapturar": 5414,
      "Ġdespides": 5415,
      "ĠLUCERO": 5416,
      "Ġexcepciones": 5417,
      "Ġpagina": 5418,
      "ĠVERDE": 5419,
      "Ġcalculadora": 5420
    },
    "merges": [
      [
        "e",
        "r"
      ],
      [
        "a",
        "r"
      ],
      [
        "Ġ",
        "c"
      ],
      [
        "e",
        "s"
      ],
      [
        "i",
        "o"
      ],
      [
        "o",
        "t"
      ],
      [
        "s",
        "u"
      ],
      [
        "e",
        "n"
      ],
      [
        "g",
        "er"
      ],
      [
        "ar",
        "io"
      ],
      [
        "b",
        "ot"
      ],
      [
        "ger",
        "bot"
      ],
      [
        "A",
        "gerbot"
      ],
      [
        "su",
        "ario"
      ],
      [
        "U",
        "suario"
      ],
      [
        "Ġ",
        "a"
      ],
      [
        "Ġ",
        "p"
      ],
      [
        "Ġ",
        "d"
      ],
      [
        "Ġ",
        "s"
      ],
      [
        "Ġ",
        "Â"
      ],
      [
        "o",
        "s"
      ],
      [
        "Ġ",
        "t"
      ],
      [
        "ĠÂ",
        "¿"
      ],
      [
        "q",
        "u"
      ],
      [
        "u",
        "n"
      ],
      [
        "Ġc",
        "o"
      ],
      [
        "Ġ",
        "o"
      ],
      [
        "l",
        "a"
      ],
      [
        "Ã",
        "Ń"
      ],
      [
        "r",
        "a"
      ],
      [
        "Ġd",
        "e"
      ],
      [
        "t",
        "a"
      ],
      [
        "Ġ",
        "e"
      ],
      [
        "Ġ",
        "m"
      ],
      [
        "Ġ",
        "un"
      ],
      [
        "t",
        "o"
      ],
      [
        "d",
        "o"
      ],
      [
        "a",
        "s"
      ],
      [
        "Ã",
        "³"
      ],
      [
        "c",
        "i"
      ],
      [
        "Ġ",
        "qu"
      ],
      [
        "Ġ",
        "es"
      ],
      [
        "Ġ",
        "v"
      ],
      [
        "Ã",
        "©"
      ],
      [
        "r",
        "e"
      ],
      [
        "t",
        "e"
      ],
      [
        "l",
        "o"
      ],
      [
        "Ġco",
        "n"
      ],
      [
        "Ġ",
        "y"
      ],
      [
        "i",
        "n"
      ],
      [
        "a",
        "l"
      ],
      [
        "a",
        "n"
      ],
      [
        "Ã",
        "¡"
      ],
      [
        "h",
        "o"
      ],
      [
        "m",
        "os"
      ],
      [
        "Ġ",
        "n"
      ],
      [
        "o",
        "r"
      ],
      [
        "i",
        "g"
      ],
      [
        "m",
        "p"
      ],
      [
        "Ġe",
        "l"
      ],
      [
        "i",
        "s"
      ],
      [
        "Ġt",
        "e"
      ],
      [
        "d",
        "a"
      ],
      [
        "Ġ",
        "b"
      ],
      [
        "Ġ",
        "la"
      ],
      [
        "i",
        "en"
      ],
      [
        "Ġun",
        "a"
      ],
      [
        "Ġqu",
        "e"
      ],
      [
        "Ã³",
        "n"
      ],
      [
        "e",
        "c"
      ],
      [
        "Ġ",
        "h"
      ],
      [
        "Ġ",
        "S"
      ],
      [
        "m",
        "o"
      ],
      [
        "i",
        "c"
      ],
      [
        "Ġc",
        "h"
      ],
      [
        "Ã",
        "±"
      ],
      [
        "r",
        "es"
      ],
      [
        "Ġ",
        "g"
      ],
      [
        "u",
        "en"
      ],
      [
        "o",
        "n"
      ],
      [
        "e",
        "g"
      ],
      [
        "d",
        "e"
      ],
      [
        "Ġ",
        "l"
      ],
      [
        "Ġ",
        "en"
      ],
      [
        "Ġ",
        "C"
      ],
      [
        "i",
        "er"
      ],
      [
        "Ġs",
        "o"
      ],
      [
        "m",
        "b"
      ],
      [
        "Ġ",
        "f"
      ],
      [
        "ÃŃ",
        "a"
      ],
      [
        "u",
        "Ã©"
      ],
      [
        "m",
        "a"
      ],
      [
        "r",
        "i"
      ],
      [
        "a",
        "Ã±"
      ],
      [
        "r",
        "o"
      ],
      [
        "Ġm",
        "e"
      ],
      [
        "Ġn",
        "o"
      ],
      [
        "ð",
        "Ł"
      ],
      [
        "m",
        "e"
      ],
      [
        "Ġe",
        "h"
      ],
      [
        "mp",
        "aÃ±"
      ],
      [
        "ci",
        "Ã³n"
      ],
      [
        "t",
        "i"
      ],
      [
        "Ġv",
        "er"
      ],
      [
        "u",
        "e"
      ],
      [
        "Ġ",
        "E"
      ],
      [
        "Ġ",
        "P"
      ],
      [
        "Ġ",
        "ðŁ"
      ],
      [
        "c",
        "u"
      ],
      [
        "Ã¡",
        "s"
      ],
      [
        "Ġa",
        "l"
      ],
      [
        "Ġh",
        "a"
      ],
      [
        "Ġ",
        "re"
      ],
      [
        "Ġc",
        "a"
      ],
      [
        "ar",
        "la"
      ],
      [
        "l",
        "ar"
      ],
      [
        "Ġco",
        "mpaÃ±"
      ],
      [
        "ho",
        "ra"
      ],
      [
        "Ġ",
        "T"
      ],
      [
        "Ġ",
        "lo"
      ],
      [
        "Ġ",
        "su"
      ],
      [
        "qu",
        "e"
      ],
      [
        "Ġ",
        "A"
      ],
      [
        "Ġp",
        "er"
      ],
      [
        "Ġb",
        "uen"
      ],
      [
        "u",
        "es"
      ],
      [
        "Ġa",
        "hora"
      ],
      [
        "qu",
        "ÃŃ"
      ],
      [
        "Q",
        "uÃ©"
      ],
      [
        "Ġch",
        "arla"
      ],
      [
        "â",
        "Ģ"
      ],
      [
        "Ļ",
        "Ĥ"
      ],
      [
        "Ġp",
        "or"
      ],
      [
        "Ġ",
        "D"
      ],
      [
        "Ġs",
        "ÃŃ"
      ],
      [
        "Ã³",
        "mo"
      ],
      [
        "ar",
        "a"
      ],
      [
        "ĠðŁ",
        "ĻĤ"
      ],
      [
        "i",
        "a"
      ],
      [
        "l",
        "e"
      ],
      [
        "s",
        "a"
      ],
      [
        "âĢ",
        "¦"
      ],
      [
        "Ġ",
        "ot"
      ],
      [
        "Ġ",
        "res"
      ],
      [
        "Ġ",
        "N"
      ],
      [
        "y",
        "e"
      ],
      [
        "Ġ",
        "in"
      ],
      [
        "Ġs",
        "i"
      ],
      [
        "c",
        "o"
      ],
      [
        "ig",
        "o"
      ],
      [
        "Ġbuen",
        "o"
      ],
      [
        "ier",
        "es"
      ],
      [
        "Ġa",
        "m"
      ],
      [
        "Ġs",
        "e"
      ],
      [
        "v",
        "e"
      ],
      [
        "eg",
        "u"
      ],
      [
        "a",
        "j"
      ],
      [
        "Ġ",
        "i"
      ],
      [
        "g",
        "o"
      ],
      [
        "da",
        "d"
      ],
      [
        "is",
        "te"
      ],
      [
        "e",
        "z"
      ],
      [
        "Ġt",
        "u"
      ],
      [
        "Ġp",
        "ues"
      ],
      [
        "Ġqu",
        "Ã©"
      ],
      [
        "i",
        "mos"
      ],
      [
        "Ġm",
        "Ã¡s"
      ],
      [
        "p",
        "e"
      ],
      [
        "Ġd",
        "es"
      ],
      [
        "t",
        "os"
      ],
      [
        "Ġcon",
        "t"
      ],
      [
        "Ġ",
        "M"
      ],
      [
        "Ġo",
        "ye"
      ],
      [
        "Ġso",
        "lo"
      ],
      [
        "Ġ",
        "ho"
      ],
      [
        "cu",
        "c"
      ],
      [
        "Ġes",
        "cuc"
      ],
      [
        "ĠN",
        "o"
      ],
      [
        "Ã",
        "º"
      ],
      [
        "ic",
        "a"
      ],
      [
        "ĠcompaÃ±",
        "er"
      ],
      [
        "ĠS",
        "ÃŃ"
      ],
      [
        "Ġp",
        "ara"
      ],
      [
        "c",
        "io"
      ],
      [
        "u",
        "s"
      ],
      [
        "an",
        "do"
      ],
      [
        "c",
        "e"
      ],
      [
        "Ġes",
        "t"
      ],
      [
        "ĠE",
        "s"
      ],
      [
        "ĠÂ",
        "¡"
      ],
      [
        "Ġs",
        "in"
      ],
      [
        "C",
        "Ã³mo"
      ],
      [
        "n",
        "a"
      ],
      [
        "Ġ",
        "G"
      ],
      [
        "r",
        "ar"
      ],
      [
        "t",
        "ra"
      ],
      [
        "i",
        "do"
      ],
      [
        "ra",
        "ci"
      ],
      [
        "i",
        "ta"
      ],
      [
        "ĠS",
        "i"
      ],
      [
        "to",
        "y"
      ],
      [
        "ec",
        "es"
      ],
      [
        "T",
        "e"
      ],
      [
        "mb",
        "i"
      ],
      [
        "Ġ",
        "L"
      ],
      [
        "Ġp",
        "re"
      ],
      [
        "egu",
        "imos"
      ],
      [
        "Ġot",
        "ra"
      ],
      [
        "i",
        "r"
      ],
      [
        "Ġc",
        "u"
      ],
      [
        "en",
        "te"
      ],
      [
        "Ġa",
        "quÃŃ"
      ],
      [
        "raci",
        "as"
      ],
      [
        "ig",
        "os"
      ],
      [
        "Ġam",
        "igos"
      ],
      [
        "t",
        "es"
      ],
      [
        "Ã¡",
        "l"
      ],
      [
        "Ġal",
        "go"
      ],
      [
        "Ġ",
        "\""
      ],
      [
        "ci",
        "a"
      ],
      [
        "n",
        "es"
      ],
      [
        "n",
        "ta"
      ],
      [
        "g",
        "un"
      ],
      [
        "Ġha",
        "b"
      ],
      [
        "v",
        "er"
      ],
      [
        "c",
        "t"
      ],
      [
        "ec",
        "to"
      ],
      [
        "ĠD",
        "e"
      ],
      [
        "Ġ",
        "j"
      ],
      [
        "Ġescuc",
        "ho"
      ],
      [
        "Ġho",
        "y"
      ],
      [
        "l",
        "u"
      ],
      [
        "uÃ©",
        "nta"
      ],
      [
        "uÃ©nta",
        "me"
      ],
      [
        "Ġp",
        "ro"
      ],
      [
        "Ġi",
        "de"
      ],
      [
        "t",
        "er"
      ],
      [
        "ĠA",
        "quÃŃ"
      ],
      [
        "c",
        "ri"
      ],
      [
        "o",
        "do"
      ],
      [
        "Ġco",
        "r"
      ],
      [
        "ĠcompaÃ±er",
        "os"
      ],
      [
        "Ġp",
        "o"
      ],
      [
        "ĠcompaÃ±",
        "ÃŃa"
      ],
      [
        "Ġch",
        "iste"
      ],
      [
        "f",
        "i"
      ],
      [
        "Ġd",
        "i"
      ],
      [
        "Q",
        "u"
      ],
      [
        "Ġb",
        "ien"
      ],
      [
        "Ġs",
        "en"
      ],
      [
        "f",
        "ecto"
      ],
      [
        "Ġes",
        "toy"
      ],
      [
        "lar",
        "o"
      ],
      [
        "Ġg",
        "a"
      ],
      [
        "ĠT",
        "e"
      ],
      [
        "Ġte",
        "ma"
      ],
      [
        "o",
        "y"
      ],
      [
        "a",
        "b"
      ],
      [
        "ar",
        "te"
      ],
      [
        "Ġp",
        "r"
      ],
      [
        "ra",
        "s"
      ],
      [
        "Ġt",
        "i"
      ],
      [
        "Ġres",
        "p"
      ],
      [
        "Ġp",
        "as"
      ],
      [
        "Ġso",
        "mos"
      ],
      [
        "s",
        "on"
      ],
      [
        "z",
        "a"
      ],
      [
        "Ġc",
        "re"
      ],
      [
        "ta",
        "s"
      ],
      [
        "to",
        "ri"
      ],
      [
        "Qu",
        "ieres"
      ],
      [
        "Ġper",
        "son"
      ],
      [
        "Ġde",
        "l"
      ],
      [
        "fi",
        "ci"
      ],
      [
        "ĠM",
        "e"
      ],
      [
        "s",
        "o"
      ],
      [
        "t",
        "ar"
      ],
      [
        "an",
        "a"
      ],
      [
        "Ġl",
        "i"
      ],
      [
        "Ġ",
        "H"
      ],
      [
        "Ġe",
        "x"
      ],
      [
        "Ġqu",
        "ier"
      ],
      [
        "Ġp",
        "ue"
      ],
      [
        "Ġco",
        "mo"
      ],
      [
        "v",
        "o"
      ],
      [
        "en",
        "a"
      ],
      [
        "i",
        "Ã³n"
      ],
      [
        "Ġ",
        "rar"
      ],
      [
        "Ġc",
        "uen"
      ],
      [
        "d",
        "i"
      ],
      [
        "Ġp",
        "a"
      ],
      [
        "Ġs",
        "ien"
      ],
      [
        "Ġc",
        "an"
      ],
      [
        "en",
        "er"
      ],
      [
        "Ġs",
        "er"
      ],
      [
        "Ġde",
        "ci"
      ],
      [
        "Ġ",
        "B"
      ],
      [
        "Ġ",
        "V"
      ],
      [
        "ic",
        "o"
      ],
      [
        "l",
        "v"
      ],
      [
        "Ġot",
        "ro"
      ],
      [
        "eg",
        "o"
      ],
      [
        "Ġno",
        "mb"
      ],
      [
        "en",
        "cia"
      ],
      [
        "Ġp",
        "e"
      ],
      [
        "Ġm",
        "i"
      ],
      [
        "ien",
        "e"
      ],
      [
        "Ġo",
        "k"
      ],
      [
        "ĠP",
        "er"
      ],
      [
        "p",
        "a"
      ],
      [
        "j",
        "a"
      ],
      [
        "t",
        "u"
      ],
      [
        "ĠC",
        "a"
      ],
      [
        "t",
        "en"
      ],
      [
        "Ġver",
        "dad"
      ],
      [
        "Ġca",
        "mb"
      ],
      [
        "Ġc",
        "er"
      ],
      [
        "i",
        "to"
      ],
      [
        "Ġc",
        "al"
      ],
      [
        "u",
        "ego"
      ],
      [
        "Ġv",
        "a"
      ],
      [
        "Ġn",
        "eces"
      ],
      [
        "Ġpre",
        "gun"
      ],
      [
        "v",
        "a"
      ],
      [
        "a",
        "da"
      ],
      [
        "b",
        "le"
      ],
      [
        "Ġcon",
        "ver"
      ],
      [
        "i",
        "da"
      ],
      [
        "Ġqu",
        "ieres"
      ],
      [
        "Ġes",
        "o"
      ],
      [
        "g",
        "u"
      ],
      [
        "Ġs",
        "al"
      ],
      [
        "sa",
        "ciÃ³n"
      ],
      [
        "Ġa",
        "b"
      ],
      [
        "Ġa",
        "y"
      ],
      [
        "Ġy",
        "o"
      ],
      [
        "or",
        "m"
      ],
      [
        "Ġres",
        "pe"
      ],
      [
        "tori",
        "a"
      ],
      [
        "Ġ",
        "ra"
      ],
      [
        "Ġm",
        "is"
      ],
      [
        "Ġsu",
        "a"
      ],
      [
        "ĠL",
        "a"
      ],
      [
        "Ġg",
        "us"
      ],
      [
        "ĠC",
        "u"
      ],
      [
        "Ġper",
        "o"
      ],
      [
        "Ġd",
        "ÃŃa"
      ],
      [
        "Ã±",
        "a"
      ],
      [
        "Ġme",
        "j"
      ],
      [
        "er",
        "a"
      ],
      [
        "eg",
        "ra"
      ],
      [
        "Ġv",
        "ez"
      ],
      [
        "ĠðŁ",
        "ĺ"
      ],
      [
        "Ġc",
        "Ã³mo"
      ],
      [
        "ĠC",
        "laro"
      ],
      [
        "Ġa",
        "c"
      ],
      [
        "Ġa",
        "n"
      ],
      [
        "c",
        "an"
      ],
      [
        "v",
        "ia"
      ],
      [
        "lu",
        "via"
      ],
      [
        "ĠPer",
        "fecto"
      ],
      [
        "Ġso",
        "y"
      ],
      [
        "Ġcan",
        "sa"
      ],
      [
        "O",
        "tra"
      ],
      [
        "i",
        "dad"
      ],
      [
        "cri",
        "b"
      ],
      [
        "f",
        "Ã©"
      ],
      [
        "u",
        "b"
      ],
      [
        "ĠE",
        "l"
      ],
      [
        "C",
        "u"
      ],
      [
        "ĠG",
        "racias"
      ],
      [
        "S",
        "eguimos"
      ],
      [
        "Ġmej",
        "or"
      ],
      [
        "\"",
        "."
      ],
      [
        "Ġga",
        "tos"
      ],
      [
        "Ġt",
        "a"
      ],
      [
        "ĠC",
        "uÃ©ntame"
      ],
      [
        "en",
        "ta"
      ],
      [
        "Ġsua",
        "ve"
      ],
      [
        "Ġs",
        "ig"
      ],
      [
        "is",
        "ta"
      ],
      [
        "de",
        "mos"
      ],
      [
        "Ġnomb",
        "res"
      ],
      [
        "o",
        "la"
      ],
      [
        "Cu",
        "Ã¡l"
      ],
      [
        "Ġt",
        "odo"
      ],
      [
        "al",
        "e"
      ],
      [
        "Ġconver",
        "saciÃ³n"
      ],
      [
        "Ġay",
        "u"
      ],
      [
        "Ġ",
        "U"
      ],
      [
        "ĠCu",
        "ando"
      ],
      [
        "c",
        "h"
      ],
      [
        "c",
        "es"
      ],
      [
        "Ġt",
        "Ãº"
      ],
      [
        "Ġh",
        "i"
      ],
      [
        "Ġb",
        "aj"
      ],
      [
        "ĠcompaÃ±er",
        "o"
      ],
      [
        "Ġquier",
        "as"
      ],
      [
        "p",
        "ita"
      ],
      [
        "lo",
        "que"
      ],
      [
        "Ġpo",
        "co"
      ],
      [
        "d",
        "es"
      ],
      [
        "i",
        "al"
      ],
      [
        "Ġd",
        "is"
      ],
      [
        "cio",
        "nes"
      ],
      [
        "pita",
        "na"
      ],
      [
        "m",
        "in"
      ],
      [
        "es",
        "ta"
      ],
      [
        "Ġest",
        "Ã¡"
      ],
      [
        "z",
        "ar"
      ],
      [
        "Â",
        "»"
      ],
      [
        "ĠÂ",
        "«"
      ],
      [
        "Ġt",
        "ra"
      ],
      [
        "as",
        "ta"
      ],
      [
        "Ġresp",
        "on"
      ],
      [
        "r",
        "u"
      ],
      [
        "Ġcu",
        "ando"
      ],
      [
        "Ġv",
        "o"
      ],
      [
        "j",
        "o"
      ],
      [
        "Ġal",
        "egra"
      ],
      [
        "Ġ",
        "er"
      ],
      [
        "es",
        "a"
      ],
      [
        "Ã©",
        "n"
      ],
      [
        "en",
        "ial"
      ],
      [
        "Ġs",
        "eguimos"
      ],
      [
        "Ġv",
        "eces"
      ],
      [
        "Ġl",
        "luvia"
      ],
      [
        "ĠP",
        "ue"
      ],
      [
        "Ġhab",
        "la"
      ],
      [
        "Ġneces",
        "ita"
      ],
      [
        "Ġca",
        "mbi"
      ],
      [
        "Ġpe",
        "que"
      ],
      [
        "ec",
        "k"
      ],
      [
        "Ġa",
        "cu"
      ],
      [
        "ri",
        "m"
      ],
      [
        "Ġide",
        "a"
      ],
      [
        "ĠSi",
        "esta"
      ],
      [
        "ĠCa",
        "pitana"
      ],
      [
        "m",
        "en"
      ],
      [
        "ta",
        "mos"
      ],
      [
        "Ġg",
        "racias"
      ],
      [
        "Ġescuc",
        "h"
      ],
      [
        "Ġo",
        "p"
      ],
      [
        "ez",
        "a"
      ],
      [
        "Ġhi",
        "lo"
      ],
      [
        "Ġha",
        "ce"
      ],
      [
        "s",
        "ica"
      ],
      [
        "ĠG",
        "enial"
      ],
      [
        "f",
        "a"
      ],
      [
        "Ġque",
        "do"
      ],
      [
        "b",
        "re"
      ],
      [
        "u",
        "l"
      ],
      [
        "Ġ",
        "R"
      ],
      [
        "qu",
        "Ã©"
      ],
      [
        "Ġperson",
        "a"
      ],
      [
        "c",
        "re"
      ],
      [
        "Ġp",
        "esa"
      ],
      [
        "Ã¡",
        "ct"
      ],
      [
        "Ġpr",
        "Ã¡ct"
      ],
      [
        "Ġo",
        "r"
      ],
      [
        "Ġes",
        "crib"
      ],
      [
        "Ġla",
        "s"
      ],
      [
        "Ġmis",
        "mo"
      ],
      [
        "Ġco",
        "mp"
      ],
      [
        "ra",
        "mos"
      ],
      [
        "Ġex",
        "p"
      ],
      [
        "Ġhabla",
        "mos"
      ],
      [
        "c",
        "er"
      ],
      [
        "Ġc",
        "os"
      ],
      [
        "fici",
        "al"
      ],
      [
        "E",
        "n"
      ],
      [
        "b",
        "a"
      ],
      [
        "e",
        "mp"
      ],
      [
        "Ġp",
        "la"
      ],
      [
        "Ġt",
        "er"
      ],
      [
        "Ġt",
        "on"
      ],
      [
        "Ġide",
        "as"
      ],
      [
        "i",
        "mo"
      ],
      [
        "Ġt",
        "res"
      ],
      [
        "Ġam",
        "igo"
      ],
      [
        "z",
        "o"
      ],
      [
        "Ġ",
        "3"
      ],
      [
        "en",
        "d"
      ],
      [
        "ÃŃ",
        "as"
      ],
      [
        "i",
        "de"
      ],
      [
        "Ġa",
        "p"
      ],
      [
        "Ġm",
        "en"
      ],
      [
        "ien",
        "te"
      ],
      [
        "g",
        "in"
      ],
      [
        "er",
        "do"
      ],
      [
        "H",
        "ola"
      ],
      [
        "la",
        "do"
      ],
      [
        "Ġpeque",
        "Ã±a"
      ],
      [
        "i",
        "l"
      ],
      [
        "la",
        "b"
      ],
      [
        "ec",
        "lado"
      ],
      [
        "ĠT",
        "eclado"
      ],
      [
        "Ġ",
        "ar"
      ],
      [
        "Ġa",
        "pe"
      ],
      [
        "or",
        "ma"
      ],
      [
        "Ġape",
        "te"
      ],
      [
        "l",
        "ig"
      ],
      [
        "Ġ",
        "2"
      ],
      [
        "Ġ",
        "O"
      ],
      [
        "Ġcont",
        "ar"
      ],
      [
        "Ġter",
        "min"
      ],
      [
        "M",
        "Ã¡s"
      ],
      [
        "aj",
        "a"
      ],
      [
        "r",
        "lo"
      ],
      [
        "Ġt",
        "al"
      ],
      [
        "Ġde",
        "ja"
      ],
      [
        "is",
        "toria"
      ],
      [
        "Ġcuen",
        "ta"
      ],
      [
        "g",
        "ra"
      ],
      [
        "t",
        "ro"
      ],
      [
        "Ġt",
        "ar"
      ],
      [
        "Ġm",
        "in"
      ],
      [
        "d",
        "os"
      ],
      [
        "ÃŃ",
        "n"
      ],
      [
        "ec",
        "e"
      ],
      [
        "d",
        "en"
      ],
      [
        "Ġtu",
        "y"
      ],
      [
        "Ġcont",
        "en"
      ],
      [
        "Ġrar",
        "o"
      ],
      [
        "n",
        "o"
      ],
      [
        "Ġn",
        "i"
      ],
      [
        "Ġn",
        "ada"
      ],
      [
        "Ġdes",
        "a"
      ],
      [
        "Ġho",
        "la"
      ],
      [
        "mbi",
        "Ã©n"
      ],
      [
        "Ġcamb",
        "io"
      ],
      [
        "Ġp",
        "res"
      ],
      [
        "ĠV",
        "ale"
      ],
      [
        "m",
        "as"
      ],
      [
        "ger",
        "o"
      ],
      [
        "Ġd",
        "a"
      ],
      [
        "Ġf",
        "al"
      ],
      [
        "ti",
        "l"
      ],
      [
        "Ġcos",
        "a"
      ],
      [
        "c",
        "ho"
      ],
      [
        "un",
        "to"
      ],
      [
        "Ġe",
        "mp"
      ],
      [
        "Ġapete",
        "ce"
      ],
      [
        "l",
        "ic"
      ],
      [
        "Ġd",
        "ic"
      ],
      [
        "ĠB",
        "uen"
      ],
      [
        "Ġ",
        "I"
      ],
      [
        "Ġta",
        "mbiÃ©n"
      ],
      [
        "Ġdeja",
        "mos"
      ],
      [
        "C",
        "h"
      ],
      [
        "c",
        "a"
      ],
      [
        "Ġbaj",
        "ito"
      ],
      [
        "Ġacu",
        "erdo"
      ],
      [
        "Ġ",
        "us"
      ],
      [
        "Ġcansa",
        "do"
      ],
      [
        "s",
        "e"
      ],
      [
        "un",
        "do"
      ],
      [
        "Ġpa",
        "lab"
      ],
      [
        "Ġconten",
        "ido"
      ],
      [
        "c",
        "on"
      ],
      [
        "j",
        "ar"
      ],
      [
        "Ġ",
        "+"
      ],
      [
        "Ġf",
        "ras"
      ],
      [
        "Ġm",
        "u"
      ],
      [
        "ho",
        "g"
      ],
      [
        "Ġdes",
        "b"
      ],
      [
        "Ġpre",
        "f"
      ],
      [
        "Ġsen",
        "ti"
      ],
      [
        "ista",
        "d"
      ],
      [
        "ĠPue",
        "do"
      ],
      [
        "Ġdesa",
        "hog"
      ],
      [
        "ar",
        "me"
      ],
      [
        "Ġp",
        "rim"
      ],
      [
        "ta",
        "do"
      ],
      [
        "ĠS",
        "oy"
      ],
      [
        "ĠD",
        "i"
      ],
      [
        "Ġer",
        "es"
      ],
      [
        "Ġ",
        "ig"
      ],
      [
        "ien",
        "es"
      ],
      [
        "Ġsu",
        "fici"
      ],
      [
        "Ġsufici",
        "ente"
      ],
      [
        "d",
        "as"
      ],
      [
        "Ġcon",
        "cre"
      ],
      [
        "Ġl",
        "e"
      ],
      [
        "ĠO",
        "k"
      ],
      [
        "aj",
        "e"
      ],
      [
        "Ġcal",
        "ma"
      ],
      [
        "Ġdesb",
        "loque"
      ],
      [
        "ĠDi",
        "me"
      ],
      [
        "Ġ",
        "r"
      ],
      [
        "Ġs",
        "egu"
      ],
      [
        "Ġy",
        "a"
      ],
      [
        "Ġest",
        "Ã¡s"
      ],
      [
        "p",
        "t"
      ],
      [
        "Ġco",
        "m"
      ],
      [
        "an",
        "te"
      ],
      [
        "co",
        "mpaÃ±"
      ],
      [
        "ci",
        "to"
      ],
      [
        "an",
        "que"
      ],
      [
        "ĠP",
        "anque"
      ],
      [
        "Ġpas",
        "o"
      ],
      [
        "ĠPanque",
        "cito"
      ],
      [
        "a",
        "ti"
      ],
      [
        "Ġn",
        "orm"
      ],
      [
        "Ġg",
        "u"
      ],
      [
        "Ġl",
        "l"
      ],
      [
        "cri",
        "pt"
      ],
      [
        "Ġli",
        "gero"
      ],
      [
        "Ġnorm",
        "al"
      ],
      [
        "c",
        "ÃŃa"
      ],
      [
        "Ġs",
        "ab"
      ],
      [
        "Ġt",
        "en"
      ],
      [
        "Ġfras",
        "e"
      ],
      [
        "Ġg",
        "an"
      ],
      [
        "ĠEs",
        "o"
      ],
      [
        "ĠEs",
        "toy"
      ],
      [
        "Ġcom",
        "ida"
      ],
      [
        "t",
        "r"
      ],
      [
        "Ġtra",
        "b"
      ],
      [
        "Ġ",
        "1"
      ],
      [
        "Ġc",
        "lar"
      ],
      [
        "Ġa",
        "mb"
      ],
      [
        "is",
        "tes"
      ],
      [
        "Ġin",
        "te"
      ],
      [
        "Ġin",
        "ter"
      ],
      [
        "Ġhab",
        "lar"
      ],
      [
        "Ġsien",
        "to"
      ],
      [
        "Ġpor",
        "que"
      ],
      [
        "p",
        "o"
      ],
      [
        "Ġ",
        "Ãº"
      ],
      [
        "Ġc",
        "uÃ©ntame"
      ],
      [
        "ti",
        "ficial"
      ],
      [
        "Ġcont",
        "igo"
      ],
      [
        "Ġra",
        "to"
      ],
      [
        "Ġgus",
        "to"
      ],
      [
        "Ġar",
        "tificial"
      ],
      [
        "lig",
        "encia"
      ],
      [
        "Ġinte",
        "ligencia"
      ],
      [
        "Ġ",
        "zo"
      ],
      [
        "mb",
        "re"
      ],
      [
        "Ġca",
        "fÃ©"
      ],
      [
        "Ġzo",
        "mbi"
      ],
      [
        "u",
        "r"
      ],
      [
        "x",
        "to"
      ],
      [
        "ien",
        "to"
      ],
      [
        "Ġch",
        "istes"
      ],
      [
        "Ġdi",
        "me"
      ],
      [
        "Ġga",
        "to"
      ],
      [
        "Ġv",
        "ar"
      ],
      [
        "Ġresp",
        "ues"
      ],
      [
        "Ġcre",
        "ati"
      ],
      [
        "Ġdeci",
        "rlo"
      ],
      [
        "c",
        "ena"
      ],
      [
        "Ġa",
        "s"
      ],
      [
        "Ġm",
        "an"
      ],
      [
        "or",
        "ta"
      ],
      [
        "Ġsien",
        "tes"
      ],
      [
        "Ġnecesita",
        "s"
      ],
      [
        "Ġes",
        "ta"
      ],
      [
        "Ġf",
        "orma"
      ],
      [
        "Ġha",
        "y"
      ],
      [
        "Ġse",
        "a"
      ],
      [
        "Ġton",
        "ter"
      ],
      [
        "Ġ",
        "J"
      ],
      [
        "di",
        "Ã³"
      ],
      [
        "Ġpregun",
        "ta"
      ],
      [
        "enta",
        "na"
      ],
      [
        "Ġva",
        "cÃŃa"
      ],
      [
        "io",
        "n"
      ],
      [
        "Ġa",
        "un"
      ],
      [
        "Ġs",
        "Ã©"
      ],
      [
        "ien",
        "t"
      ],
      [
        "Ġh",
        "istoria"
      ],
      [
        "Ġamb",
        "ient"
      ],
      [
        "Ġaun",
        "que"
      ],
      [
        "u",
        "m"
      ],
      [
        "Ġo",
        "b"
      ],
      [
        "Ġes",
        "pa"
      ],
      [
        "Ã¡l",
        "ido"
      ],
      [
        "can",
        "so"
      ],
      [
        "o",
        "demos"
      ],
      [
        "s",
        "iÃ³n"
      ],
      [
        "ĠP",
        "odemos"
      ],
      [
        "Ġrespues",
        "ta"
      ],
      [
        "i",
        "v"
      ],
      [
        "u",
        "tos"
      ],
      [
        "Ġp",
        "ar"
      ],
      [
        "Ġm",
        "m"
      ],
      [
        "Ġl",
        "ÃŃn"
      ],
      [
        "Ġpro",
        "gra"
      ],
      [
        "Ġll",
        "eg"
      ],
      [
        "ĠlÃŃn",
        "e"
      ],
      [
        "Ġprogra",
        "ma"
      ],
      [
        "b",
        "eza"
      ],
      [
        "er",
        "o"
      ],
      [
        "Ġv",
        "ue"
      ],
      [
        "Ġca",
        "beza"
      ],
      [
        "Ġper",
        "fecto"
      ],
      [
        "Ġtuy",
        "o"
      ],
      [
        "no",
        "mbre"
      ],
      [
        "u",
        "da"
      ],
      [
        "ra",
        "ct"
      ],
      [
        "Ġl",
        "la"
      ],
      [
        "Ġcamb",
        "ia"
      ],
      [
        "Ġmen",
        "os"
      ],
      [
        "f",
        "ica"
      ],
      [
        "Ġsi",
        "r"
      ],
      [
        "e",
        "o"
      ],
      [
        "s",
        "in"
      ],
      [
        "Ġ",
        "QuÃ©"
      ],
      [
        "Ġvar",
        "i"
      ],
      [
        "O",
        "tro"
      ],
      [
        "p",
        "i"
      ],
      [
        "ot",
        "es"
      ],
      [
        "Ġe",
        "mo"
      ],
      [
        "ig",
        "otes"
      ],
      [
        "ĠS",
        "in"
      ],
      [
        "ma",
        "gin"
      ],
      [
        "Ġha",
        "cer"
      ],
      [
        "ĠB",
        "igotes"
      ],
      [
        "Ġgus",
        "ta"
      ],
      [
        "?",
        "\"."
      ],
      [
        "Ġ",
        "â"
      ],
      [
        "Ġc",
        "laro"
      ],
      [
        "Ġt",
        "ienes"
      ],
      [
        "Ġm",
        "a"
      ],
      [
        "Ġque",
        "da"
      ],
      [
        "Ġcor",
        "re"
      ],
      [
        "Ġpue",
        "do"
      ],
      [
        "Â»",
        "."
      ],
      [
        "O",
        "ye"
      ],
      [
        "a",
        "mos"
      ],
      [
        "c",
        "ti"
      ],
      [
        "Ã³",
        "d"
      ],
      [
        "ien",
        "cia"
      ],
      [
        "Ġg",
        "ener"
      ],
      [
        "Ġpo",
        "demos"
      ],
      [
        "Ġsen",
        "t"
      ],
      [
        "o",
        "l"
      ],
      [
        "mp",
        "l"
      ],
      [
        "Ãº",
        "sica"
      ],
      [
        "lv",
        "ÃŃ"
      ],
      [
        "Ġmin",
        "utos"
      ],
      [
        "m",
        "ente"
      ],
      [
        "ar",
        "Ã©"
      ],
      [
        "Ġa",
        "compaÃ±"
      ],
      [
        "Ġen",
        "c"
      ],
      [
        "ĠE",
        "n"
      ],
      [
        "Ġcor",
        "to"
      ],
      [
        "Ġpue",
        "de"
      ],
      [
        "Ġrespon",
        "d"
      ],
      [
        "Ġor",
        "den"
      ],
      [
        "Ġsenti",
        "do"
      ],
      [
        "M",
        "L"
      ],
      [
        "S",
        "S"
      ],
      [
        "T",
        "ML"
      ],
      [
        "i",
        "vo"
      ],
      [
        "l",
        "os"
      ],
      [
        "z",
        "Ã³n"
      ],
      [
        "ĠC",
        "SS"
      ],
      [
        "Te",
        "ma"
      ],
      [
        "Ġj",
        "uego"
      ],
      [
        "ĠH",
        "TML"
      ],
      [
        "Ġa",
        "j"
      ],
      [
        "Ġch",
        "ar"
      ],
      [
        "p",
        "on"
      ],
      [
        "ar",
        "ia"
      ],
      [
        "Ġm",
        "er"
      ],
      [
        "Ġh",
        "asta"
      ],
      [
        "Ġen",
        "t"
      ],
      [
        "ĠE",
        "mp"
      ],
      [
        "Ġha",
        "ces"
      ],
      [
        "ct",
        "u"
      ],
      [
        "ub",
        "e"
      ],
      [
        "S",
        "cript"
      ],
      [
        "a",
        "va"
      ],
      [
        "u",
        "iente"
      ],
      [
        "Ġ",
        "ri"
      ],
      [
        "on",
        "o"
      ],
      [
        "Ġl",
        "os"
      ],
      [
        "Ġl",
        "uego"
      ],
      [
        "ĠM",
        "i"
      ],
      [
        "ĠL",
        "o"
      ],
      [
        "Ġcal",
        "ide"
      ],
      [
        "Ġsegu",
        "ir"
      ],
      [
        "Ġclar",
        "a"
      ],
      [
        "ĠJ",
        "ava"
      ],
      [
        "Ġcalide",
        "z"
      ],
      [
        "ĠJava",
        "Script"
      ],
      [
        "c",
        "al"
      ],
      [
        "l",
        "es"
      ],
      [
        "Ġc",
        "Ã³d"
      ],
      [
        "Ġt",
        "r"
      ],
      [
        "Ġe",
        "j"
      ],
      [
        "Ġv",
        "iene"
      ],
      [
        "Ġch",
        "eck"
      ],
      [
        "ĠD",
        "es"
      ],
      [
        "ez",
        "as"
      ],
      [
        "Ġchar",
        "lar"
      ],
      [
        "ĠcÃ³d",
        "igo"
      ],
      [
        "b",
        "o"
      ],
      [
        "n",
        "or"
      ],
      [
        "Ġd",
        "os"
      ],
      [
        "Ġes",
        "e"
      ],
      [
        "Ġv",
        "ic"
      ],
      [
        "Ġre",
        "g"
      ],
      [
        "Ġquier",
        "o"
      ],
      [
        "ten",
        "d"
      ],
      [
        "Ġig",
        "nor"
      ],
      [
        "Ġvic",
        "toria"
      ],
      [
        "Ġp",
        "Ã¡"
      ],
      [
        "Ġp",
        "unto"
      ],
      [
        "Ġrespe",
        "to"
      ],
      [
        "Ġayu",
        "do"
      ],
      [
        "Ġtr",
        "iste"
      ],
      [
        "B",
        "uen"
      ],
      [
        "Ġt",
        "o"
      ],
      [
        "Ġm",
        "odo"
      ],
      [
        "Ã¡",
        "n"
      ],
      [
        "Ġop",
        "ener"
      ],
      [
        "ĠprÃ¡ct",
        "ico"
      ],
      [
        "Ch",
        "arla"
      ],
      [
        "j",
        "e"
      ],
      [
        "en",
        "cio"
      ],
      [
        "Ġo",
        "lv"
      ],
      [
        "ĠC",
        "h"
      ],
      [
        "Ġca",
        "os"
      ],
      [
        "Ġsir",
        "ve"
      ],
      [
        "Ġaj",
        "Ã¡"
      ],
      [
        "Ġtrab",
        "aj"
      ],
      [
        "um",
        "or"
      ],
      [
        "ĠlÃŃne",
        "as"
      ],
      [
        "d",
        "u"
      ],
      [
        "t",
        "ho"
      ],
      [
        "y",
        "tho"
      ],
      [
        "Ġ",
        "F"
      ],
      [
        "io",
        "nes"
      ],
      [
        "Ġs",
        "eg"
      ],
      [
        "ti",
        "r"
      ],
      [
        "ĠP",
        "ytho"
      ],
      [
        "Ġayu",
        "d"
      ],
      [
        "ĠU",
        "n"
      ],
      [
        "Ġfal",
        "ta"
      ],
      [
        "Ġgener",
        "al"
      ],
      [
        "ĠPytho",
        "n"
      ],
      [
        "l",
        "la"
      ],
      [
        "Ġo",
        "ÃŃ"
      ],
      [
        "Ġes",
        "cena"
      ],
      [
        "in",
        "s"
      ],
      [
        "Ġch",
        "a"
      ],
      [
        "Ġlo",
        "cal"
      ],
      [
        "Ġcre",
        "ar"
      ],
      [
        "lv",
        "as"
      ],
      [
        "ĠprÃ¡ct",
        "ica"
      ],
      [
        "Ġvue",
        "lvas"
      ],
      [
        "m",
        "Ã¡"
      ],
      [
        "m",
        "istad"
      ],
      [
        "u",
        "d"
      ],
      [
        "ĠA",
        "mistad"
      ],
      [
        "Ġpalab",
        "ras"
      ],
      [
        "Ġdesahog",
        "arte"
      ],
      [
        "Ġas",
        "ÃŃ"
      ],
      [
        "cti",
        "ve"
      ],
      [
        "s",
        "an"
      ],
      [
        "t",
        "in"
      ],
      [
        "ot",
        "a"
      ],
      [
        "Ġt",
        "iene"
      ],
      [
        "Ġn",
        "a"
      ],
      [
        "ĠS",
        "e"
      ],
      [
        "Ġpor",
        "fa"
      ],
      [
        "Ġdes",
        "canso"
      ],
      [
        "Ġcambi",
        "ar"
      ],
      [
        "ĠBuen",
        "a"
      ],
      [
        "L",
        "e"
      ],
      [
        "e",
        "fa"
      ],
      [
        "ot",
        "al"
      ],
      [
        "Ġd",
        "uda"
      ],
      [
        "Ġt",
        "otal"
      ],
      [
        "ci",
        "al"
      ],
      [
        "te",
        "xto"
      ],
      [
        "Ġcon",
        "texto"
      ],
      [
        "ĠS",
        "igo"
      ],
      [
        "ri",
        "do"
      ],
      [
        "tra",
        "s"
      ],
      [
        "Ġj",
        "efa"
      ],
      [
        "lu",
        "ta"
      ],
      [
        "so",
        "luta"
      ],
      [
        "Ġab",
        "soluta"
      ],
      [
        "Ġsig",
        "uiente"
      ],
      [
        "Ġtar",
        "de"
      ],
      [
        "Ġpres",
        "encia"
      ],
      [
        "Ġre",
        "gu"
      ],
      [
        "Ġin",
        "ten"
      ],
      [
        "Ġregu",
        "lar"
      ],
      [
        "i",
        "zar"
      ],
      [
        "r",
        "os"
      ],
      [
        "r",
        "end"
      ],
      [
        "er",
        "ÃŃa"
      ],
      [
        "Ġp",
        "ract"
      ],
      [
        "Ġrar",
        "os"
      ],
      [
        "Ġescrib",
        "ir"
      ],
      [
        "Ġpract",
        "ic"
      ],
      [
        "n",
        "te"
      ],
      [
        "ÃŃ",
        "sica"
      ],
      [
        "do",
        "r"
      ],
      [
        "res",
        "co"
      ],
      [
        "Ġf",
        "un"
      ],
      [
        "Ġf",
        "ÃŃsica"
      ],
      [
        "ĠT",
        "iene"
      ],
      [
        "Ġbuen",
        "as"
      ],
      [
        "Ġpas",
        "eo"
      ],
      [
        "ĠðŁĺ",
        "´"
      ],
      [
        "Ġsent",
        "iste"
      ],
      [
        "t",
        "Ã³"
      ],
      [
        "v",
        "idad"
      ],
      [
        "ig",
        "e"
      ],
      [
        "Ġso",
        "bre"
      ],
      [
        "Ġf",
        "ue"
      ],
      [
        "Ġab",
        "ur"
      ],
      [
        "ĠR",
        "es"
      ],
      [
        "Ġmu",
        "ch"
      ],
      [
        "tr",
        "ono"
      ],
      [
        "Ġlla",
        "ve"
      ],
      [
        "Ġorden",
        "ar"
      ],
      [
        "Ġabur",
        "rido"
      ],
      [
        "trono",
        "m"
      ],
      [
        "u",
        "jar"
      ],
      [
        "Ġs",
        "on"
      ],
      [
        "Ġm",
        "aÃ±"
      ],
      [
        "tu",
        "os"
      ],
      [
        "Ġcer",
        "ramos"
      ],
      [
        "Ġrespe",
        "tuos"
      ],
      [
        "ĠmaÃ±",
        "ana"
      ],
      [
        "g",
        "a"
      ],
      [
        "l",
        "ica"
      ],
      [
        "n",
        "do"
      ],
      [
        "Ġc",
        "as"
      ],
      [
        "Ġper",
        "ros"
      ],
      [
        "Ġi",
        "magin"
      ],
      [
        "ce",
        "l"
      ],
      [
        "Ġpregun",
        "to"
      ],
      [
        "Ġpref",
        "ieres"
      ],
      [
        "mÃ¡",
        "t"
      ],
      [
        "e",
        "mos"
      ],
      [
        "g",
        "ÃŃa"
      ],
      [
        "to",
        "n"
      ],
      [
        "an",
        "o"
      ],
      [
        "Ġmi",
        "l"
      ],
      [
        "ĠU",
        "na"
      ],
      [
        "Ġenc",
        "aja"
      ],
      [
        "Ġent",
        "re"
      ],
      [
        "Ġcha",
        "t"
      ],
      [
        "c",
        "ciÃ³n"
      ],
      [
        "as",
        "tronom"
      ],
      [
        "Ġg",
        "ana"
      ],
      [
        "Ġg",
        "astronom"
      ],
      [
        "Ġcuen",
        "tas"
      ],
      [
        "Ġvo",
        "lvÃŃ"
      ],
      [
        "Ġconcre",
        "ta"
      ],
      [
        "Ġvari",
        "ante"
      ],
      [
        "Ġignor",
        "o"
      ],
      [
        "Ġo",
        "igo"
      ],
      [
        "Ġb",
        "loque"
      ],
      [
        "Ġla",
        "te"
      ],
      [
        "Ġca",
        "ja"
      ],
      [
        "Ġi",
        "mp"
      ],
      [
        "Ġrar",
        "ezas"
      ],
      [
        "Ġpar",
        "ece"
      ],
      [
        "f",
        "in"
      ],
      [
        "ar",
        "o"
      ],
      [
        "as",
        "te"
      ],
      [
        "Ġqu",
        "i"
      ],
      [
        "Ġcon",
        "s"
      ],
      [
        "Ã³n",
        "de"
      ],
      [
        "Ġin",
        "v"
      ],
      [
        "Ġcor",
        "ta"
      ],
      [
        "Ġespa",
        "cio"
      ],
      [
        "Ġemo",
        "j"
      ],
      [
        "i",
        "fica"
      ],
      [
        "ľ",
        "¨"
      ],
      [
        "er",
        "gÃŃa"
      ],
      [
        "la",
        "s"
      ],
      [
        "an",
        "san"
      ],
      [
        "Ġen",
        "ergÃŃa"
      ],
      [
        "ĠC",
        "ansan"
      ],
      [
        "Ġperson",
        "aje"
      ],
      [
        "Ġescuch",
        "a"
      ],
      [
        "Ġdic",
        "ho"
      ],
      [
        "Ġsab",
        "es"
      ],
      [
        "Ġâ",
        "ľ¨"
      ],
      [
        "ĠCansan",
        "cio"
      ],
      [
        "A",
        "l"
      ],
      [
        "u",
        "er"
      ],
      [
        "Ġde",
        "b"
      ],
      [
        "ig",
        "as"
      ],
      [
        "ĠD",
        "on"
      ],
      [
        "ĠCa",
        "fÃ©"
      ],
      [
        "Ġcer",
        "can"
      ],
      [
        "lic",
        "ar"
      ],
      [
        "ĠÃº",
        "til"
      ],
      [
        "Ġej",
        "emp"
      ],
      [
        "ton",
        "ces"
      ],
      [
        ".",
        "\""
      ],
      [
        "e",
        "l"
      ],
      [
        "m",
        "ar"
      ],
      [
        "m",
        "iento"
      ],
      [
        "o",
        "lo"
      ],
      [
        "p",
        "uÃ©"
      ],
      [
        "es",
        "o"
      ],
      [
        "Ġcon",
        "f"
      ],
      [
        "Ġest",
        "ru"
      ],
      [
        "Ġemp",
        "ez"
      ],
      [
        "Ġdic",
        "es"
      ],
      [
        "Ġmer",
        "ece"
      ],
      [
        "puÃ©",
        "s"
      ],
      [
        "Ġestru",
        "ctu"
      ],
      [
        "D",
        "e"
      ],
      [
        "Ġp",
        "an"
      ],
      [
        "Ġl",
        "en"
      ],
      [
        "Ã¡s",
        "ico"
      ],
      [
        "Ġca",
        "da"
      ],
      [
        "Ġcharla",
        "ndo"
      ],
      [
        "men",
        "to"
      ],
      [
        "Ġprim",
        "era"
      ],
      [
        "Ġayud",
        "arte"
      ],
      [
        "Ġcercan",
        "o"
      ],
      [
        "p",
        "y"
      ],
      [
        "u",
        "ana"
      ],
      [
        "z",
        "co"
      ],
      [
        "Ġ",
        "ro"
      ],
      [
        "Ġm",
        "o"
      ],
      [
        "Ġso",
        "l"
      ],
      [
        "Ġre",
        "con"
      ],
      [
        "Ġper",
        "uana"
      ],
      [
        "ĠðŁĺ",
        "Ĥ"
      ],
      [
        "Ġcambi",
        "as"
      ],
      [
        "b",
        "ia"
      ],
      [
        "e",
        "y"
      ],
      [
        "g",
        "an"
      ],
      [
        "i",
        "Ã³"
      ],
      [
        "Ġc",
        "Ã¡l"
      ],
      [
        "Ġd",
        "ÃŃas"
      ],
      [
        "Ġd",
        "igas"
      ],
      [
        "Ġn",
        "ue"
      ],
      [
        "ĠP",
        "or"
      ],
      [
        "Ġcomp",
        "ara"
      ],
      [
        "emp",
        "o"
      ],
      [
        "Ġda",
        "me"
      ],
      [
        "Ġprim",
        "ero"
      ],
      [
        "Ġtonter",
        "ÃŃa"
      ],
      [
        "Ġtrabaj",
        "o"
      ],
      [
        "Ġrespetuos",
        "o"
      ],
      [
        "t",
        "Ã¡"
      ],
      [
        "Ġ",
        "Ã¡n"
      ],
      [
        "Ġc",
        "ier"
      ],
      [
        "Ġa",
        "g"
      ],
      [
        "Ġt",
        "Ã©"
      ],
      [
        "Ġm",
        "undo"
      ],
      [
        "Ġqu",
        "eso"
      ],
      [
        "Ġv",
        "ivo"
      ],
      [
        "re",
        "gun"
      ],
      [
        "Ġel",
        "e"
      ],
      [
        "ec",
        "ciÃ³n"
      ],
      [
        "Ġf",
        "in"
      ],
      [
        "Ġsu",
        "ena"
      ],
      [
        "tu",
        "al"
      ],
      [
        "Ġcambia",
        "mos"
      ],
      [
        "e",
        "le"
      ],
      [
        "h",
        "a"
      ],
      [
        "i",
        "za"
      ],
      [
        "os",
        "i"
      ],
      [
        "re",
        "c"
      ],
      [
        "mp",
        "le"
      ],
      [
        "ue",
        "le"
      ],
      [
        "Ġnomb",
        "re"
      ],
      [
        "gu",
        "aje"
      ],
      [
        "Ġac",
        "lar"
      ],
      [
        "cel",
        "ente"
      ],
      [
        "Ġpan",
        "zÃ³n"
      ],
      [
        "Ġlen",
        "guaje"
      ],
      [
        "¸",
        "ı"
      ],
      [
        "ï",
        "¸ı"
      ],
      [
        "en",
        "s"
      ],
      [
        "Ġs",
        "igo"
      ],
      [
        "Ġv",
        "entana"
      ],
      [
        "Ġb",
        "re"
      ],
      [
        "Ġin",
        "f"
      ],
      [
        "Ġdes",
        "pa"
      ],
      [
        "Ãº",
        "n"
      ],
      [
        "Ġan",
        "tes"
      ],
      [
        "Ġdis",
        "tin"
      ],
      [
        "ĠpÃ¡",
        "gin"
      ],
      [
        "Q",
        "ue"
      ],
      [
        "Ġ",
        "Que"
      ],
      [
        "ot",
        "i"
      ],
      [
        "Ġa",
        "ud"
      ],
      [
        "ra",
        "to"
      ],
      [
        "Ġes",
        "a"
      ],
      [
        "Ġcon",
        "v"
      ],
      [
        "ĠS",
        "ig"
      ],
      [
        "Ġver",
        "siÃ³n"
      ],
      [
        "ĠT",
        "rato"
      ],
      [
        "Ġse",
        "as"
      ],
      [
        "Ġti",
        "bia"
      ],
      [
        "Ġti",
        "empo"
      ],
      [
        "Ġpas",
        "arme"
      ],
      [
        "Ġsig",
        "n"
      ],
      [
        "En",
        "tras"
      ],
      [
        "Ġconcre",
        "to"
      ],
      [
        "ĠEmp",
        "i"
      ],
      [
        "L",
        "a"
      ],
      [
        "d",
        "io"
      ],
      [
        "e",
        "a"
      ],
      [
        "i",
        "z"
      ],
      [
        "Ġc",
        "r"
      ],
      [
        "en",
        "tar"
      ],
      [
        "Ġp",
        "i"
      ],
      [
        "Ġp",
        "arte"
      ],
      [
        "Ġd",
        "o"
      ],
      [
        "is",
        "t"
      ],
      [
        "is",
        "iÃ³n"
      ],
      [
        "ĠS",
        "olo"
      ],
      [
        "Ġf",
        "orm"
      ],
      [
        "ĠP",
        "ara"
      ],
      [
        "Ġli",
        "b"
      ],
      [
        "Ġlleg",
        "Ã³"
      ],
      [
        "Buen",
        "as"
      ],
      [
        "Ġseg",
        "undo"
      ],
      [
        "Ġcas",
        "a"
      ],
      [
        "c",
        "Ã³mo"
      ],
      [
        "Ġde",
        "ta"
      ],
      [
        "Ġcon",
        "o"
      ],
      [
        "da",
        "me"
      ],
      [
        "ec",
        "ho"
      ],
      [
        "Ġl",
        "ar"
      ],
      [
        "Ġre",
        "un"
      ],
      [
        "Ġmen",
        "sa"
      ],
      [
        "Ġpalab",
        "ra"
      ],
      [
        "Ġ1",
        "0"
      ],
      [
        "Ġrespond",
        "er"
      ],
      [
        "Ġdeta",
        "l"
      ],
      [
        "b",
        "es"
      ],
      [
        "Ġa",
        "mpl"
      ],
      [
        "Ġv",
        "oy"
      ],
      [
        "in",
        "co"
      ],
      [
        "Ġb",
        "us"
      ],
      [
        "ier",
        "ra"
      ],
      [
        "ue",
        "des"
      ],
      [
        "Ġre",
        "a"
      ],
      [
        "Ġi",
        "r"
      ],
      [
        "Ġmin",
        "i"
      ],
      [
        "Ġr",
        "ara"
      ],
      [
        "Ġesta",
        "ba"
      ],
      [
        "ĠpÃ¡gin",
        "a"
      ],
      [
        "Ġaud",
        "iencia"
      ],
      [
        "e",
        "py"
      ],
      [
        "er",
        "po"
      ],
      [
        "Ġde",
        "jar"
      ],
      [
        "Ġe",
        "v"
      ],
      [
        "Ġl",
        "le"
      ],
      [
        "Ġno",
        "ch"
      ],
      [
        "Ġam",
        "istad"
      ],
      [
        "Ġcu",
        "erpo"
      ],
      [
        "za",
        "ciÃ³n"
      ],
      [
        "Ġcre",
        "epy"
      ],
      [
        "ĠV",
        "Ã¡lido"
      ],
      [
        "tu",
        "ra"
      ],
      [
        "Ġac",
        "ab"
      ],
      [
        "Ġsab",
        "er"
      ],
      [
        "Ġten",
        "go"
      ],
      [
        "Ġgan",
        "as"
      ],
      [
        "Ġfin",
        "al"
      ],
      [
        "Ġnoch",
        "es"
      ],
      [
        "M",
        "Ãºsica"
      ],
      [
        "a",
        "y"
      ],
      [
        "d",
        "ia"
      ],
      [
        "r",
        "or"
      ],
      [
        "v",
        "io"
      ],
      [
        "Ġd",
        "Ã³nde"
      ],
      [
        "Ġv",
        "ier"
      ],
      [
        "is",
        "a"
      ],
      [
        "ĠT",
        "res"
      ],
      [
        "Ġdeci",
        "diÃ³"
      ],
      [
        "Ġpe",
        "l"
      ],
      [
        "Ġer",
        "ror"
      ],
      [
        "ĠÃ¡n",
        "imo"
      ],
      [
        "Ġvier",
        "nes"
      ],
      [
        "p",
        "res"
      ],
      [
        "Ġm",
        "al"
      ],
      [
        "Ġn",
        "ube"
      ],
      [
        "Ġen",
        "tonces"
      ],
      [
        "ier",
        "ta"
      ],
      [
        "ĠE",
        "x"
      ],
      [
        "ĠðŁ",
        "Į"
      ],
      [
        "cu",
        "lo"
      ],
      [
        "ĠT",
        "a"
      ],
      [
        "Ġj",
        "unto"
      ],
      [
        "Ġpro",
        "ble"
      ],
      [
        "ter",
        "io"
      ],
      [
        "Ġsig",
        "ue"
      ],
      [
        "Ġus",
        "ar"
      ],
      [
        "Ġcreati",
        "vo"
      ],
      [
        "orta",
        "nte"
      ],
      [
        "Ġtonter",
        "ÃŃas"
      ],
      [
        "Ġob",
        "s"
      ],
      [
        "Ġreg",
        "ener"
      ],
      [
        "mÃ¡t",
        "ic"
      ],
      [
        "Ġempez",
        "ar"
      ],
      [
        "Ġnue",
        "vo"
      ],
      [
        "Ġbre",
        "ve"
      ],
      [
        "Ġreun",
        "iÃ³n"
      ],
      [
        "e",
        "ci"
      ],
      [
        "Ġ",
        "u"
      ],
      [
        "Ġco",
        "lo"
      ],
      [
        "Ġcon",
        "tamos"
      ],
      [
        "Ġh",
        "umor"
      ],
      [
        "ier",
        "o"
      ],
      [
        "egu",
        "lar"
      ],
      [
        "Ġdes",
        "puÃ©s"
      ],
      [
        "Ġsal",
        "imos"
      ],
      [
        "Ġta",
        "za"
      ],
      [
        "Ġdis",
        "tra"
      ],
      [
        "ĠR",
        "egular"
      ],
      [
        "Ġpla",
        "nes"
      ],
      [
        "Ġemp",
        "ujar"
      ],
      [
        "Ġma",
        "te"
      ],
      [
        "d",
        "ic"
      ],
      [
        "l",
        "encio"
      ],
      [
        "Ġ",
        "="
      ],
      [
        "Ġp",
        "ens"
      ],
      [
        "Ġo",
        "ficial"
      ],
      [
        "Ġm",
        "ÃŃ"
      ],
      [
        "Ġv",
        "al"
      ],
      [
        "Ġsi",
        "lencio"
      ],
      [
        "Ġpro",
        "pon"
      ],
      [
        "Ġpr",
        "isa"
      ],
      [
        "Ġpa",
        "pe"
      ],
      [
        "Ġvo",
        "z"
      ],
      [
        "Ġton",
        "o"
      ],
      [
        "Ġob",
        "je"
      ],
      [
        "Ġaclar",
        "ar"
      ],
      [
        "ĠEmpi",
        "eza"
      ],
      [
        "c",
        "n"
      ],
      [
        "i",
        "re"
      ],
      [
        "Ġa",
        "da"
      ],
      [
        "Ġp",
        "ub"
      ],
      [
        "Ġp",
        "ide"
      ],
      [
        "ra",
        "ciÃ³n"
      ],
      [
        "Ġel",
        "ecciÃ³n"
      ],
      [
        "uen",
        "te"
      ],
      [
        "ier",
        "a"
      ],
      [
        "Ġf",
        "resco"
      ],
      [
        "Ġal",
        "gu"
      ],
      [
        "Ġre",
        "v"
      ],
      [
        "Ġsu",
        "mar"
      ],
      [
        "Ġti",
        "ra"
      ],
      [
        "ĠH",
        "ola"
      ],
      [
        "Ġgastronom",
        "ÃŃa"
      ],
      [
        "Ġada",
        "p"
      ],
      [
        "Ġalgu",
        "ien"
      ],
      [
        "P",
        "or"
      ],
      [
        "a",
        "hora"
      ],
      [
        "b",
        "u"
      ],
      [
        "b",
        "er"
      ],
      [
        "Ġ",
        "Otra"
      ],
      [
        "Ġt",
        "ierra"
      ],
      [
        "ÃŃ",
        "s"
      ],
      [
        "ra",
        "ble"
      ],
      [
        "Ġv",
        "io"
      ],
      [
        "ho",
        "y"
      ],
      [
        "ro",
        "b"
      ],
      [
        "ti",
        "vo"
      ],
      [
        "Ġre",
        "la"
      ],
      [
        "Ġre",
        "ci"
      ],
      [
        "Ġcu",
        "l"
      ],
      [
        "gun",
        "o"
      ],
      [
        "Ġdi",
        "jo"
      ],
      [
        "Ġti",
        "l"
      ],
      [
        "di",
        "e"
      ],
      [
        "ĠEl",
        "ige"
      ],
      [
        "Ġescrib",
        "o"
      ],
      [
        "Ġda",
        "tos"
      ],
      [
        "Ġmu",
        "cho"
      ],
      [
        "Ġprograma",
        "ciÃ³n"
      ],
      [
        "ĠCh",
        "eck"
      ],
      [
        "ĠPor",
        "que"
      ],
      [
        "Ġmate",
        "mÃ¡tic"
      ],
      [
        "r",
        "la"
      ],
      [
        "Ġs",
        "or"
      ],
      [
        "Ġco",
        "ci"
      ],
      [
        "Ġde",
        "te"
      ],
      [
        "Ġv",
        "ale"
      ],
      [
        "in",
        "g"
      ],
      [
        "Ġla",
        "n"
      ],
      [
        "Ġf",
        "a"
      ],
      [
        "Ġsen",
        "ci"
      ],
      [
        "Ġli",
        "bre"
      ],
      [
        "Ġrespe",
        "tar"
      ],
      [
        "ch",
        "os"
      ],
      [
        "Ġpla",
        "n"
      ],
      [
        "Ch",
        "eck"
      ],
      [
        "Ġgu",
        "ar"
      ],
      [
        "Ġgan",
        "chos"
      ],
      [
        "ĠoÃŃ",
        "rla"
      ],
      [
        "Ġejemp",
        "lo"
      ],
      [
        "Ġmensa",
        "j"
      ],
      [
        "Ġpape",
        "l"
      ],
      [
        "c",
        "la"
      ],
      [
        "e",
        "dad"
      ],
      [
        "i",
        "d"
      ],
      [
        "i",
        "ble"
      ],
      [
        "Ġa",
        "ire"
      ],
      [
        "ien",
        "tes"
      ],
      [
        "Ġen",
        "tend"
      ],
      [
        "ver",
        "s"
      ],
      [
        "Ġj",
        "aja"
      ],
      [
        "Ġpregun",
        "tas"
      ],
      [
        "va",
        "ciÃ³n"
      ],
      [
        "ul",
        "tado"
      ],
      [
        "orma",
        "ciÃ³n"
      ],
      [
        "Ġtermin",
        "amos"
      ],
      [
        "Ġolv",
        "ida"
      ],
      [
        "Ġson",
        "ido"
      ],
      [
        "Ġqui",
        "e"
      ],
      [
        "D",
        "orm"
      ],
      [
        "L",
        "o"
      ],
      [
        "M",
        "in"
      ],
      [
        "e",
        "j"
      ],
      [
        "h",
        "istoria"
      ],
      [
        "u",
        "al"
      ],
      [
        "v",
        "iera"
      ],
      [
        "Ġp",
        "end"
      ],
      [
        "Ġde",
        "mas"
      ],
      [
        "Ġm",
        "ente"
      ],
      [
        "do",
        "rable"
      ],
      [
        "Ġb",
        "Ã¡sico"
      ],
      [
        "Ã³n",
        "imo"
      ],
      [
        "Ġg",
        "ente"
      ],
      [
        "Ġf",
        "u"
      ],
      [
        "ĠA",
        "dorable"
      ],
      [
        "Ġsi",
        "do"
      ],
      [
        "Ġtu",
        "viera"
      ],
      [
        "ĠM",
        "isiÃ³n"
      ],
      [
        "cio",
        "na"
      ],
      [
        "Ġcu",
        "mpl"
      ],
      [
        "Ġan",
        "Ã³nimo"
      ],
      [
        "il",
        "Ã³n"
      ],
      [
        "Ġtuy",
        "a"
      ],
      [
        "Ġus",
        "o"
      ],
      [
        "Ġig",
        "ual"
      ],
      [
        "Ġdesbloque",
        "o"
      ],
      [
        "Ġto",
        "dos"
      ],
      [
        "ĠtÃ©",
        "cn"
      ],
      [
        "Ġdetal",
        "le"
      ],
      [
        "Dorm",
        "ilÃ³n"
      ],
      [
        "Min",
        "i"
      ],
      [
        "Ġdemas",
        "ia"
      ],
      [
        "Ġcumpl",
        "ida"
      ],
      [
        "P",
        "uedes"
      ],
      [
        "c",
        "ar"
      ],
      [
        "d",
        "ir"
      ],
      [
        "n",
        "Ã³"
      ],
      [
        "o",
        "ber"
      ],
      [
        "r",
        "ÃŃa"
      ],
      [
        "t",
        "te"
      ],
      [
        "t",
        "mo"
      ],
      [
        "u",
        "a"
      ],
      [
        "Ġ",
        "era"
      ],
      [
        "Ġo",
        "me"
      ],
      [
        "to",
        "ma"
      ],
      [
        "Ġte",
        "mas"
      ],
      [
        "Ġb",
        "or"
      ],
      [
        "ĠS",
        "eguimos"
      ],
      [
        "on",
        "er"
      ],
      [
        "ĠT",
        "i"
      ],
      [
        "le",
        "tte"
      ],
      [
        "ĠN",
        "egra"
      ],
      [
        "ĠN",
        "ube"
      ],
      [
        "ĠG",
        "ober"
      ],
      [
        "Ġsen",
        "saciÃ³n"
      ],
      [
        "Ġpue",
        "das"
      ],
      [
        "Ġsal",
        "Ã³n"
      ],
      [
        "Ġmis",
        "terio"
      ],
      [
        "ĠðŁĺ",
        "Ķ"
      ],
      [
        "Ġri",
        "tmo"
      ],
      [
        "tend",
        "ido"
      ],
      [
        "Ġolv",
        "iÃ³"
      ],
      [
        "Ġna",
        "die"
      ],
      [
        "Al",
        "guno"
      ],
      [
        "Ġdespa",
        "cho"
      ],
      [
        "Ġdistra",
        "cciÃ³n"
      ],
      [
        "Ġtil",
        "de"
      ],
      [
        "Ġome",
        "lette"
      ],
      [
        "ĠGober",
        "nÃ³"
      ],
      [
        "O",
        "r"
      ],
      [
        "j",
        "os"
      ],
      [
        "l",
        "ico"
      ],
      [
        "n",
        "ar"
      ],
      [
        "u",
        "tori"
      ],
      [
        "Ġc",
        "ele"
      ],
      [
        "Ġp",
        "uer"
      ],
      [
        "Ġes",
        "p"
      ],
      [
        "Ġg",
        "raci"
      ],
      [
        "ĠA",
        "utori"
      ],
      [
        "pe",
        "tado"
      ],
      [
        "Ġest",
        "arÃ©"
      ],
      [
        "ĠH",
        "ab"
      ],
      [
        "ĠB",
        "ien"
      ],
      [
        "Ġcer",
        "ca"
      ],
      [
        "ĠðŁĺ",
        "ħ"
      ],
      [
        "ĠU",
        "f"
      ],
      [
        "Ġfal",
        "tÃ³"
      ],
      [
        "ĠRes",
        "petado"
      ],
      [
        "gan",
        "izar"
      ],
      [
        "Ġrea",
        "ctive"
      ],
      [
        "Ġmensaj",
        "es"
      ],
      [
        "Ġcele",
        "b"
      ],
      [
        "Ġpuer",
        "ta"
      ],
      [
        "Ġgraci",
        "a"
      ],
      [
        "ĠAutori",
        "zaciÃ³n"
      ],
      [
        "R",
        "iv"
      ],
      [
        "f",
        "o"
      ],
      [
        "m",
        "Ã¡s"
      ],
      [
        "m",
        "ana"
      ],
      [
        "v",
        "an"
      ],
      [
        "v",
        "iv"
      ],
      [
        "er",
        "vio"
      ],
      [
        "Ġv",
        "ir"
      ],
      [
        "Ã±",
        "or"
      ],
      [
        "ĠC",
        "inco"
      ],
      [
        "Ġal",
        "to"
      ],
      [
        "Ġsu",
        "s"
      ],
      [
        "ia",
        "u"
      ],
      [
        "Ġres",
        "ultado"
      ],
      [
        "Ġse",
        "mana"
      ],
      [
        "ve",
        "mos"
      ],
      [
        "ĠM",
        "iau"
      ],
      [
        "so",
        "bre"
      ],
      [
        "Ġsien",
        "tas"
      ],
      [
        "Ġcan",
        "al"
      ],
      [
        "Ġdis",
        "cu"
      ],
      [
        "Ġtermin",
        "ar"
      ],
      [
        "Ġcuenta",
        "n"
      ],
      [
        "Ġgu",
        "ion"
      ],
      [
        "Ġman",
        "da"
      ],
      [
        "Ġespa",
        "cial"
      ],
      [
        "ĠSe",
        "Ã±or"
      ],
      [
        "Ġinf",
        "ormaciÃ³n"
      ],
      [
        "ĠEx",
        "celente"
      ],
      [
        "ÃŃs",
        "imo"
      ],
      [
        "ĠTi",
        "ramos"
      ],
      [
        "Riv",
        "al"
      ],
      [
        "viv",
        "iste"
      ],
      [
        "Ġvir",
        "tual"
      ],
      [
        "sobre",
        "viviste"
      ],
      [
        "C",
        "uÃ©ntame"
      ],
      [
        "P",
        "la"
      ],
      [
        "l",
        "ist"
      ],
      [
        "p",
        "rend"
      ],
      [
        "y",
        "list"
      ],
      [
        "§",
        "ï¸ı"
      ],
      [
        "ar",
        "co"
      ],
      [
        "en",
        "to"
      ],
      [
        "Ġde",
        "fin"
      ],
      [
        "Ġn",
        "ub"
      ],
      [
        "eg",
        "rÃŃa"
      ],
      [
        "Ġf",
        "on"
      ],
      [
        "Ġme",
        "dio"
      ],
      [
        "Ġre",
        "pe"
      ],
      [
        "Ġsu",
        "b"
      ],
      [
        "Ġres",
        "ol"
      ],
      [
        "Ġcont",
        "ra"
      ],
      [
        "ĠEs",
        "e"
      ],
      [
        "Ġex",
        "a"
      ],
      [
        "Ġcer",
        "ra"
      ],
      [
        "Ġay",
        "er"
      ],
      [
        "Ġac",
        "ciÃ³n"
      ],
      [
        "Ġop",
        "era"
      ],
      [
        "cre",
        "tamos"
      ],
      [
        "Ġap",
        "rend"
      ],
      [
        "Ġtar",
        "ea"
      ],
      [
        "con",
        "cretamos"
      ],
      [
        "Ġpractic",
        "ando"
      ],
      [
        "Ġimagin",
        "aria"
      ],
      [
        "Ġestructu",
        "ra"
      ],
      [
        "Ġlar",
        "go"
      ],
      [
        "ĠðŁĮ",
        "§ï¸ı"
      ],
      [
        "Ġsor",
        "prend"
      ],
      [
        "Ġfu",
        "era"
      ],
      [
        "Pla",
        "ylist"
      ],
      [
        "Ġnub",
        "es"
      ],
      [
        "Ġresol",
        "ver"
      ],
      [
        "F",
        "ue"
      ],
      [
        "H",
        "oy"
      ],
      [
        "S",
        "il"
      ],
      [
        "d",
        "ena"
      ],
      [
        "f",
        "ortante"
      ],
      [
        "i",
        "es"
      ],
      [
        "i",
        "te"
      ],
      [
        "m",
        "ul"
      ],
      [
        "v",
        "es"
      ],
      [
        "Ġp",
        "oner"
      ],
      [
        "Ġd",
        "on"
      ],
      [
        "Ġso",
        "la"
      ],
      [
        "Ġf",
        "uente"
      ],
      [
        "ĠP",
        "re"
      ],
      [
        "ĠA",
        "l"
      ],
      [
        "Ġbuen",
        "a"
      ],
      [
        "Ġsi",
        "emp"
      ],
      [
        "us",
        "o"
      ],
      [
        "lu",
        "men"
      ],
      [
        "ĠH",
        "echo"
      ],
      [
        "Ġser",
        "ies"
      ],
      [
        "ĠV",
        "ay"
      ],
      [
        "Ã±a",
        "de"
      ],
      [
        "Ġvo",
        "lumen"
      ],
      [
        "Ġacu",
        "mul"
      ],
      [
        "men",
        "tos"
      ],
      [
        "ĠI",
        "A"
      ],
      [
        "Ġpref",
        "er"
      ],
      [
        "Ġdesahog",
        "arme"
      ],
      [
        "ĠoÃŃ",
        "rlo"
      ],
      [
        "Ġrecon",
        "fortante"
      ],
      [
        "Ġfa",
        "ena"
      ],
      [
        "Ġsenci",
        "lla"
      ],
      [
        "Sil",
        "encio"
      ],
      [
        "Ġdon",
        "de"
      ],
      [
        "Ġsiemp",
        "re"
      ],
      [
        "ĠVay",
        "a"
      ],
      [
        "Ġacumul",
        "Ã³"
      ],
      [
        "C",
        "a"
      ],
      [
        "P",
        "el"
      ],
      [
        "S",
        "ub"
      ],
      [
        "V",
        "oy"
      ],
      [
        "g",
        "as"
      ],
      [
        "k",
        "ing"
      ],
      [
        "l",
        "Ã©"
      ],
      [
        "n",
        "king"
      ],
      [
        "o",
        "mpaÃ±"
      ],
      [
        "v",
        "as"
      ],
      [
        "Ġ",
        "za"
      ],
      [
        "Į",
        "Ĭ"
      ],
      [
        "Ġt",
        "an"
      ],
      [
        "ÃŃ",
        "r"
      ],
      [
        "ÃŃ",
        "cu"
      ],
      [
        "Ġqu",
        "erÃŃa"
      ],
      [
        "or",
        "d"
      ],
      [
        "Ġte",
        "xto"
      ],
      [
        "ĠC",
        "ompaÃ±"
      ],
      [
        "ðŁ",
        "ĻĤ"
      ],
      [
        "ðŁ",
        "ĮĬ"
      ],
      [
        "Ġver",
        "te"
      ],
      [
        "ĠE",
        "sa"
      ],
      [
        "cu",
        "los"
      ],
      [
        "Ġtu",
        "s"
      ],
      [
        "ce",
        "p"
      ],
      [
        "Ġpa",
        "ci"
      ],
      [
        "Ġdeci",
        "r"
      ],
      [
        "Ġrespe",
        "tamos"
      ],
      [
        "Ġra",
        "nking"
      ],
      [
        "Ġdesbloque",
        "arte"
      ],
      [
        "Ġcreati",
        "vidad"
      ],
      [
        "ĠacompaÃ±",
        "e"
      ],
      [
        "Ġrespond",
        "ÃŃ"
      ],
      [
        "ĠðŁĺ´",
        "ðŁĻĤ"
      ],
      [
        "Ġmuch",
        "ÃŃsimo"
      ],
      [
        "Ġdeb",
        "ÃŃa"
      ],
      [
        "Ġampl",
        "io"
      ],
      [
        "Ġdete",
        "ctive"
      ],
      [
        "Or",
        "ganizar"
      ],
      [
        "Pel",
        "ÃŃcu"
      ],
      [
        "Sub",
        "imos"
      ],
      [
        "Ġza",
        "pa"
      ],
      [
        "ĠðŁĺ´ðŁĻĤ",
        "ðŁĮĬ"
      ],
      [
        "PelÃŃcu",
        "las"
      ],
      [
        "C",
        "on"
      ],
      [
        "E",
        "x"
      ],
      [
        "H",
        "umor"
      ],
      [
        "L",
        "luvia"
      ],
      [
        "M",
        "odo"
      ],
      [
        "d",
        "s"
      ],
      [
        "ar",
        "de"
      ],
      [
        "Ġa",
        "ten"
      ],
      [
        "Ġde",
        "p"
      ],
      [
        "Ġm",
        "ar"
      ],
      [
        "Ġm",
        "Ãºsica"
      ],
      [
        "Ġun",
        "o"
      ],
      [
        "da",
        "te"
      ],
      [
        "ic",
        "io"
      ],
      [
        "Ġso",
        "f"
      ],
      [
        "mpaÃ±",
        "ada"
      ],
      [
        "ĠE",
        "mpaÃ±ada"
      ],
      [
        "Ġre",
        "pres"
      ],
      [
        "ĠT",
        "arde"
      ],
      [
        "sa",
        "bes"
      ],
      [
        "ĠL",
        "ej"
      ],
      [
        "Ġpro",
        "y"
      ],
      [
        "Ġcor",
        "tas"
      ],
      [
        "ĠMe",
        "dia"
      ],
      [
        "Ġpa",
        "ds"
      ],
      [
        "ĠV",
        "entana"
      ],
      [
        "Ġsal",
        "iste"
      ],
      [
        "Ġra",
        "zÃ³n"
      ],
      [
        "Ġan",
        "al"
      ],
      [
        "crib",
        "e"
      ],
      [
        "Ġrespon",
        "do"
      ],
      [
        "ĠPue",
        "de"
      ],
      [
        "Ġexp",
        "licar"
      ],
      [
        "Ġsenti",
        "r"
      ],
      [
        "ĠF",
        "aro"
      ],
      [
        "Le",
        "tra"
      ],
      [
        "Ġinten",
        "sa"
      ],
      [
        "Ġemoj",
        "is"
      ],
      [
        "Ġdistin",
        "to"
      ],
      [
        "Ġsign",
        "ifica"
      ],
      [
        "Ġacab",
        "Ã³"
      ],
      [
        "Ġpel",
        "ÃŃn"
      ],
      [
        "ĠTa",
        "za"
      ],
      [
        "Ġpend",
        "iente"
      ],
      [
        "Ġsub",
        "imos"
      ],
      [
        "Ġsorprend",
        "ido"
      ],
      [
        "Ġaten",
        "ciÃ³n"
      ],
      [
        "ĠLej",
        "ano"
      ],
      [
        "D",
        "on"
      ],
      [
        "Y",
        "o"
      ],
      [
        "r",
        "ra"
      ],
      [
        "ar",
        "an"
      ],
      [
        "io",
        "ri"
      ],
      [
        "su",
        "l"
      ],
      [
        "ÃŃ",
        "date"
      ],
      [
        "Ġes",
        "pe"
      ],
      [
        "Ġv",
        "i"
      ],
      [
        "Ġn",
        "os"
      ],
      [
        "Ġn",
        "ota"
      ],
      [
        "mp",
        "o"
      ],
      [
        "ec",
        "ta"
      ],
      [
        "Ġg",
        "aran"
      ],
      [
        "ti",
        "zar"
      ],
      [
        "Ġre",
        "f"
      ],
      [
        "Ġre",
        "co"
      ],
      [
        "ĠL",
        "uego"
      ],
      [
        "Ġpro",
        "b"
      ],
      [
        "Ġpr",
        "iori"
      ],
      [
        "ĠCu",
        "ÃŃdate"
      ],
      [
        "Ġtermin",
        "emos"
      ],
      [
        "lica",
        "ciones"
      ],
      [
        "Ġimp",
        "orta"
      ],
      [
        "Ġcompara",
        "do"
      ],
      [
        "Ġrev",
        "is"
      ],
      [
        "Ġgaran",
        "tizar"
      ],
      [
        "H",
        "asta"
      ],
      [
        "b",
        "les"
      ],
      [
        "c",
        "as"
      ],
      [
        "h",
        "ÃŃ"
      ],
      [
        "l",
        "ti"
      ],
      [
        "t",
        "rar"
      ],
      [
        "Ġa",
        "hÃŃ"
      ],
      [
        "Ġd",
        "igo"
      ],
      [
        "Ġcon",
        "se"
      ],
      [
        "ec",
        "ha"
      ],
      [
        "Ġg",
        "ra"
      ],
      [
        "Ġf",
        "r"
      ],
      [
        "Ġf",
        "uego"
      ],
      [
        "aj",
        "aja"
      ],
      [
        "dad",
        "es"
      ],
      [
        "Ġj",
        "ajaja"
      ],
      [
        "Ġpue",
        "da"
      ],
      [
        "Ġcuen",
        "to"
      ],
      [
        "rim",
        "iento"
      ],
      [
        "Ġescuch",
        "as"
      ],
      [
        "Ġtar",
        "des"
      ],
      [
        "Ġgu",
        "iones"
      ],
      [
        "Ġtrab",
        "as"
      ],
      [
        "ĠÃº",
        "lti"
      ],
      [
        "ĠEn",
        "tendido"
      ],
      [
        "Charla",
        "mos"
      ],
      [
        "Ġbloque",
        "o"
      ],
      [
        "Ġemoj",
        "i"
      ],
      [
        "Ġro",
        "l"
      ],
      [
        "Ġag",
        "ota"
      ],
      [
        "Ġele",
        "mentos"
      ],
      [
        "osi",
        "ciÃ³n"
      ],
      [
        "Ġobs",
        "er"
      ],
      [
        "Ġtira",
        "me"
      ],
      [
        "ĠHab",
        "la"
      ],
      [
        "Ġpaci",
        "encia"
      ],
      [
        "P",
        "regun"
      ],
      [
        "S",
        "i"
      ],
      [
        "a",
        "do"
      ],
      [
        "i",
        "jo"
      ],
      [
        "en",
        "de"
      ],
      [
        "Ġcon",
        "fi"
      ],
      [
        "al",
        "ma"
      ],
      [
        "Ġb",
        "asta"
      ],
      [
        "Ġb",
        "arco"
      ],
      [
        "Ġg",
        "i"
      ],
      [
        "ĠC",
        "alma"
      ],
      [
        "me",
        "lo"
      ],
      [
        "Ġha",
        "z"
      ],
      [
        "ĠA",
        "compaÃ±"
      ],
      [
        "le",
        "mos"
      ],
      [
        "Ġsi",
        "tu"
      ],
      [
        "ĠEs",
        "te"
      ],
      [
        "Ġcor",
        "tos"
      ],
      [
        "Ġdi",
        "bu"
      ],
      [
        "Ġperson",
        "al"
      ],
      [
        "Ġcuen",
        "te"
      ],
      [
        "ista",
        "l"
      ],
      [
        "ul",
        "ario"
      ],
      [
        "den",
        "ti"
      ],
      [
        "Ġr",
        "Ã¡"
      ],
      [
        "ion",
        "al"
      ],
      [
        "Ġemo",
        "ciÃ³n"
      ],
      [
        "ĠacompaÃ±",
        "ar"
      ],
      [
        "ĠcÃ¡l",
        "culos"
      ],
      [
        "Ġcr",
        "istal"
      ],
      [
        "Ġdo",
        "cu"
      ],
      [
        "Ġobje",
        "tivo"
      ],
      [
        "Ġentend",
        "ÃŃ"
      ],
      [
        "Ġquie",
        "to"
      ],
      [
        "Ca",
        "fÃ©"
      ],
      [
        "Ġsof",
        "Ã¡"
      ],
      [
        "Ġproy",
        "ecto"
      ],
      [
        "Pregun",
        "tas"
      ],
      [
        "ĠAcompaÃ±",
        "ado"
      ],
      [
        "Ġsitu",
        "a"
      ],
      [
        "Ġdibu",
        "ja"
      ],
      [
        "<",
        "/"
      ],
      [
        "N",
        "o"
      ],
      [
        "c",
        "en"
      ],
      [
        "e",
        "e"
      ],
      [
        "Â",
        "¿"
      ],
      [
        "Ġ",
        "Agerbot"
      ],
      [
        "Ġ",
        "âĢ"
      ],
      [
        "os",
        "an"
      ],
      [
        "Ġo",
        "jo"
      ],
      [
        "Ġm",
        "oti"
      ],
      [
        "lo",
        "go"
      ],
      [
        "lo",
        "jo"
      ],
      [
        "Ġh",
        "u"
      ],
      [
        "Ġen",
        "con"
      ],
      [
        "Ġf",
        "ia"
      ],
      [
        "Ġre",
        "cu"
      ],
      [
        "Ġre",
        "ce"
      ],
      [
        "âĢ",
        "Ŀ"
      ],
      [
        "Ġj",
        "u"
      ],
      [
        "Ġpro",
        "f"
      ],
      [
        "Ġpr",
        "in"
      ],
      [
        "Ġti",
        "po"
      ],
      [
        "til",
        "la"
      ],
      [
        "Ġle",
        "er"
      ],
      [
        "Ġhacer",
        "lo"
      ],
      [
        "Ġqueda",
        "mos"
      ],
      [
        "Ġpractic",
        "as"
      ],
      [
        "Ġimagin",
        "ario"
      ],
      [
        "Ġinv",
        "enta"
      ],
      [
        "Ġproble",
        "ma"
      ],
      [
        "Ġcolo",
        "r"
      ],
      [
        "Ġadap",
        "tamos"
      ],
      [
        "van",
        "zar"
      ],
      [
        "Ġzapa",
        "tilla"
      ],
      [
        "Ġespe",
        "cial"
      ],
      [
        "ĠâĢ",
        "ľ"
      ],
      [
        "Ġmoti",
        "vaciÃ³n"
      ],
      [
        "Ġrece",
        "ta"
      ],
      [
        "b",
        "as"
      ],
      [
        "g",
        "re"
      ],
      [
        "i",
        "f"
      ],
      [
        "j",
        "Ã³"
      ],
      [
        "t",
        "ri"
      ],
      [
        "en",
        "do"
      ],
      [
        "Ġa",
        "ter"
      ],
      [
        "Ġt",
        "ro"
      ],
      [
        "Ġh",
        "ey"
      ],
      [
        "mb",
        "ra"
      ],
      [
[...]
